{
  "version": "1.0",
  "truncation": null,
  "padding": null,
  "added_tokens": [],
  "normalizer": null,
  "pre_tokenizer": {
    "type": "ByteLevel",
    "add_prefix_space": false,
    "trim_offsets": true,
    "use_regex": true
  },
  "post_processor": null,
  "decoder": null,
  "model": {
    "type": "BPE",
    "dropout": null,
    "unk_token": null,
    "continuing_subword_prefix": null,
    "end_of_word_suffix": null,
    "fuse_unk": false,
    "byte_fallback": false,
    "ignore_merges": false,
    "vocab": {
      "!": 0,
      "%": 1,
      "&": 2,
      "'": 3,
      "(": 4,
      ")": 5,
      "*": 6,
      "+": 7,
      ",": 8,
      "-": 9,
      ".": 10,
      "/": 11,
      "0": 12,
      "1": 13,
      "2": 14,
      "3": 15,
      "4": 16,
      "5": 17,
      "6": 18,
      "7": 19,
      "8": 20,
      "9": 21,
      ":": 22,
      ";": 23,
      "<": 24,
      "=": 25,
      ">": 26,
      "?": 27,
      "@": 28,
      "A": 29,
      "B": 30,
      "C": 31,
      "D": 32,
      "E": 33,
      "F": 34,
      "G": 35,
      "H": 36,
      "I": 37,
      "J": 38,
      "K": 39,
      "L": 40,
      "M": 41,
      "N": 42,
      "O": 43,
      "P": 44,
      "Q": 45,
      "R": 46,
      "S": 47,
      "T": 48,
      "U": 49,
      "V": 50,
      "W": 51,
      "X": 52,
      "Y": 53,
      "Z": 54,
      "[": 55,
      "]": 56,
      "^": 57,
      "_": 58,
      "`": 59,
      "a": 60,
      "b": 61,
      "c": 62,
      "d": 63,
      "e": 64,
      "f": 65,
      "g": 66,
      "h": 67,
      "i": 68,
      "j": 69,
      "k": 70,
      "l": 71,
      "m": 72,
      "n": 73,
      "o": 74,
      "p": 75,
      "q": 76,
      "r": 77,
      "s": 78,
      "t": 79,
      "u": 80,
      "v": 81,
      "w": 82,
      "x": 83,
      "y": 84,
      "z": 85,
      "{": 86,
      "|": 87,
      "}": 88,
      "~": 89,
      "¡": 90,
      "¢": 91,
      "£": 92,
      "¤": 93,
      "¥": 94,
      "¦": 95,
      "§": 96,
      "¨": 97,
      "©": 98,
      "ª": 99,
      "«": 100,
      "¬": 101,
      "¯": 102,
      "°": 103,
      "±": 104,
      "²": 105,
      "³": 106,
      "´": 107,
      "µ": 108,
      "¶": 109,
      "·": 110,
      "¸": 111,
      "º": 112,
      "»": 113,
      "¼": 114,
      "½": 115,
      "Â": 116,
      "Ã": 117,
      "Î": 118,
      "Ï": 119,
      "â": 120,
      "Ġ": 121,
      "Ģ": 122,
      "ģ": 123,
      "Ĥ": 124,
      "ĥ": 125,
      "Ħ": 126,
      "ħ": 127,
      "Ĩ": 128,
      "ĩ": 129,
      "Ī": 130,
      "ī": 131,
      "ĭ": 132,
      "İ": 133,
      "Ĳ": 134,
      "ĳ": 135,
      "Ĵ": 136,
      "ĵ": 137,
      "Ķ": 138,
      "ķ": 139,
      "ĸ": 140,
      "Ĺ": 141,
      "ĺ": 142,
      "Ļ": 143,
      "Ľ": 144,
      "ľ": 145,
      "Ŀ": 146,
      "ŀ": 147,
      "Ł": 148,
      "ł": 149,
      "Ń": 150,
      "Ġt": 151,
      "Ġa": 152,
      "he": 153,
      "in": 154,
      "re": 155,
      "Ġthe": 156,
      "Ġc": 157,
      "Ġ=": 158,
      "Ġ1": 159,
      "Ġo": 160,
      "is": 161,
      "er": 162,
      "Ġs": 163,
      "Ġ2": 164,
      "on": 165,
      "Ġof": 166,
      "it": 167,
      "Ġâ": 168,
      "Ġ(": 169,
      "al": 170,
      "en": 171,
      "at": 172,
      "an": 173,
      "Ġp": 174,
      "Ġin": 175,
      "ct": 176,
      "or": 177,
      "ce": 178,
      "Ġan": 179,
      "Ġb": 180,
      "Ġf": 181,
      "le": 182,
      "Ġis": 183,
      "Ġw": 184,
      "ĠâĪ": 185,
      "ed": 186,
      "Ġand": 187,
      "ĠA": 188,
      "Ġm": 189,
      "Ġd": 190,
      "ĠI": 191,
      "ing": 192,
      "ur": 193,
      "Ġre": 194,
      "Ġv": 195,
      "ol": 196,
      "ro": 197,
      "ar": 198,
      "es": 199,
      "et": 200,
      "Ġ0": 201,
      "ĠT": 202,
      "ion": 203,
      "ĠV": 204,
      "ĠF": 205,
      "ic": 206,
      "ow": 207,
      "00": 208,
      "Ġe": 209,
      "ag": 210,
      "ÃĹ": 211,
      "Ġ3": 212,
      "iv": 213,
      "ren": 214,
      "ĠâĪĴ": 215,
      "Ġto": 216,
      "ig": 217,
      "as": 218,
      "ance": 219,
      "ĠR": 220,
      "ĠÎ": 221,
      "rent": 222,
      "ĠC": 223,
      "urrent": 224,
      "Ġ+": 225,
      "Ġth": 226,
      "ir": 227,
      "Ġl": 228,
      "Ġco": 229,
      "Ġcurrent": 230,
      "mp": 231,
      "ent": 232,
      "ĠE": 233,
      "cu": 234,
      "ĠÃĹ": 235,
      "Ġ4": 236,
      "Ġres": 237,
      "ĠFig": 238,
      "Ġ10": 239,
      "il": 240,
      "ĠThe": 241,
      "ist": 242,
      "Ġ5": 243,
      "Ġbe": 244,
      "ĠS": 245,
      "Ġn": 246,
      "âĪ": 247,
      "ly": 248,
      "qu": 249,
      "olt": 250,
      "Ġcon": 251,
      "ut": 252,
      "ĠB": 253,
      "ĠL": 254,
      "Ġvolt": 255,
      "Ġj": 256,
      "Ġh": 257,
      "ch": 258,
      "ect": 259,
      "st": 260,
      "ad": 261,
      "age": 262,
      "ircu": 263,
      "lect": 264,
      "Ġresist": 265,
      "ircuit": 266,
      "Ġg": 267,
      "Ġare": 268,
      "ss": 269,
      "um": 270,
      "ŀ£": 271,
      "Ġâİ": 272,
      "du": 273,
      "Ġi": 274,
      "ĠW": 275,
      "âĪĴ": 276,
      "âĢ": 277,
      "pp": 278,
      "Ġfor": 279,
      "us": 280,
      "ot": 281,
      "Ġ6": 282,
      "Ġr": 283,
      "Ġby": 284,
      "ĠH": 285,
      "Ġvoltage": 286,
      "ive": 287,
      "el": 288,
      "Ġsh": 289,
      "un": 290,
      "Ġas": 291,
      "Ġit": 292,
      "ul": 293,
      "Ġcircuit": 294,
      "ĠN": 295,
      "Ġor": 296,
      "Ġresistance": 297,
      "âŀ£": 298,
      "ter": 299,
      "ower": 300,
      "ase": 301,
      "ĠÎ©": 302,
      "ap": 303,
      "Â°": 304,
      "ĠP": 305,
      "ii": 306,
      "Ġon": 307,
      "ith": 308,
      "im": 309,
      "ation": 310,
      "ve": 311,
      "..": 312,
      "ac": 313,
      "ĠÏ": 314,
      "ity": 315,
      "Ġat": 316,
      "Ġthat": 317,
      "ĠâĪ´": 318,
      "alu": 319,
      "Ġdi": 320,
      "eter": 321,
      "os": 322,
      "id": 323,
      "ate": 324,
      "lectr": 325,
      "own": 326,
      "Î©": 327,
      "Ġwith": 328,
      "Ġsu": 329,
      "Ġk": 330,
      "act": 331,
      "ies": 332,
      "Ġvalu": 333,
      "Ġwh": 334,
      "rom": 335,
      "duct": 336,
      "10": 337,
      "âŀ£âŀ£": 338,
      "hen": 339,
      "ĠZ": 340,
      "Ġpower": 341,
      "mple": 342,
      "apac": 343,
      "lectric": 344,
      "etw": 345,
      "ĠM": 346,
      "ant": 347,
      "Ġph": 348,
      "Ġ8": 349,
      "ĠD": 350,
      "Ġlo": 351,
      "ind": 352,
      "Ġ12": 353,
      "Ġcoil": 354,
      "nect": 355,
      "am": 356,
      "Ġal": 357,
      "ge": 358,
      "apacit": 359,
      "Ġshown": 360,
      "Ġac": 361,
      "ver": 362,
      "ĠU": 363,
      "Ġst": 364,
      "ĠIn": 365,
      "een": 366,
      "Ġ100": 367,
      "ross": 368,
      "Ġfrom": 369,
      "ff": 370,
      "Ġsin": 371,
      "wo": 372,
      "agn": 373,
      "our": 374,
      "Ġequ": 375,
      "olut": 376,
      "ich": 377,
      "Ġma": 378,
      "Ġvalue": 379,
      "olution": 380,
      "ure": 381,
      "Ġch": 382,
      "Ġwhich": 383,
      "ĠâĢ": 384,
      "Ġ9": 385,
      "Ġcapacit": 386,
      "ec": 387,
      "gy": 388,
      "Ġacross": 389,
      "ĠEx": 390,
      "ample": 391,
      "om": 392,
      "nected": 393,
      "Ġfl": 394,
      "Ġpo": 395,
      "ial": 396,
      "Ġtwo": 397,
      "ine": 398,
      "Ġ)": 399,
      "Ġ7": 400,
      "Ġ19": 401,
      "agnet": 402,
      "Ġ15": 403,
      "ug": 404,
      "ĠSolution": 405,
      "ĠUn": 406,
      "ĠExample": 407,
      "Ġ[": 408,
      "Ġwe": 409,
      ").": 410,
      "res": 411,
      "her": 412,
      "Âº": 413,
      "Ġpro": 414,
      "âĪł": 415,
      "Ġsupp": 416,
      "ence": 417,
      "ore": 418,
      "ak": 419,
      "od": 420,
      "late": 421,
      "ran": 422,
      "âİ": 423,
      "alle": 424,
      "ave": 425,
      "Î©Î©": 426,
      "ugh": 427,
      "Ġ200": 428,
      "ĠO": 429,
      "ĠIt": 430,
      "Ġ20": 431,
      "enc": 432,
      "int": 433,
      "ĠY": 434,
      "ĠUniv": 435,
      "erm": 436,
      "und": 437,
      "âĢĻ": 438,
      "ÏĢ": 439,
      "Ġus": 440,
      "ĠX": 441,
      "Ġab": 442,
      "etween": 443,
      "Ġex": 444,
      "12": 445,
      "Ġconnected": 446,
      "ond": 447,
      "Ġ50": 448,
      "Ġwhen": 449,
      "Ġcos": 450,
      "Ġgiv": 451,
      "Ġphase": 452,
      "ource": 453,
      "eries": 454,
      "ble": 455,
      "Ġhas": 456,
      "Ġpar": 457,
      "ill": 458,
      "Ġ.": 459,
      "ach": 460,
      "Ġthis": 461,
      "rough": 462,
      "Ġne": 463,
      "Ġbetween": 464,
      "Ġ:": 465,
      "alcu": 466,
      "Ġits": 467,
      "li": 468,
      "Ġpoint": 469,
      "ain": 470,
      "Ġde": 471,
      "osit": 472,
      "ced": 473,
      "allel": 474,
      "Ġthrough": 475,
      "Ġchar": 476,
      "Ġload": 477,
      "Ġsource": 478,
      "ork": 479,
      "ĠHence": 480,
      "sity": 481,
      "ux": 482,
      "ech": 483,
      "Ġcapacitor": 484,
      "meter": 485,
      "ire": 486,
      "ĠâĪł": 487,
      "20": 488,
      "25": 489,
      "requ": 490,
      "lectrical": 491,
      "ents": 492,
      "ency": 493,
      "atter": 494,
      "Ġ;": 495,
      "Ġcan": 496,
      "Ġeach": 497,
      "aw": 498,
      "Ġseries": 499,
      "ating": 500,
      "ener": 501,
      "âĢĶ": 502,
      "Ġgiven": 503,
      "Ġmagnet": 504,
      "Ġle": 505,
      "Ġ11": 506,
      "Ġinduct": 507,
      "actor": 508,
      "alculate": 509,
      "Ġsupply": 510,
      "Ġapp": 511,
      "ort": 512,
      "Ġ14": 513,
      "Ġme": 514,
      "ĠQ": 515,
      "ĠÎ¼": 516,
      "30": 517,
      "Ġ25": 518,
      "ms": 519,
      "ĠIf": 520,
      "echn": 521,
      "ĠÎ¸": 522,
      "ated": 523,
      "Ġflux": 524,
      "Ġfrequ": 525,
      "Ġwill": 526,
      "stant": 527,
      "ree": 528,
      "Ġresistor": 529,
      "ction": 530,
      "str": 531,
      "ĠÏĨ": 532,
      "Ġun": 533,
      "Ġ13": 534,
      "ĠTechn": 535,
      "Ġterm": 536,
      "15": 537,
      "ous": 538,
      "ĠâĢĵ": 539,
      "ving": 540,
      "...": 541,
      "Ġhave": 542,
      "lied": 543,
      "inal": 544,
      "olo": 545,
      "ical": 546,
      "oul": 547,
      "th": 548,
      "Ġparallel": 549,
      "14": 550,
      "ology": 551,
      "igh": 552,
      "se": 553,
      "ĠTechnology": 554,
      "Ġbatter": 555,
      "Ġpl": 556,
      "Ġimp": 557,
      "econd": 558,
      "ay": 559,
      "Ġcons": 560,
      "ove": 561,
      "Ġone": 562,
      "ther": 563,
      "Ġnot": 564,
      "ector": 565,
      "pen": 566,
      "Ġthen": 567,
      "ould": 568,
      "Ġcurrents": 569,
      "ell": 570,
      "âĪĴâĪĴ": 571,
      "ĠAs": 572,
      "ĠFor": 573,
      "Ġdis": 574,
      "Ġwat": 575,
      "here": 576,
      "000": 577,
      "Ġ/": 578,
      "Ġsp": 579,
      "Ġper": 580,
      "ĠTh": 581,
      "Ġfactor": 582,
      "tern": 583,
      "Ġdire": 584,
      "ative": 585,
      "duced": 586,
      "Ïī": 587,
      "ame": 588,
      "Ġtak": 589,
      "16": 590,
      "âĢ²": 591,
      "ary": 592,
      "ĠElectrical": 593,
      "Ġfind": 594,
      "ates": 595,
      "etwork": 596,
      "ste": 597,
      "able": 598,
      "),": 599,
      "ass": 600,
      "edance": 601,
      "Ġ...": 602,
      "Ġ30": 603,
      "ip": 604,
      "hase": 605,
      "ĠG": 606,
      "Ġline": 607,
      "imum": 608,
      "ential": 609,
      "Ġfrequency": 610,
      "ĠK": 611,
      "Ġmax": 612,
      "Ġâŀ£": 613,
      "âŀ£âŀ£âŀ£âŀ£": 614,
      "Ġâŀ£âŀ£âŀ£âŀ£âŀ£": 615,
      "so": 616,
      "Ġint": 617,
      "orm": 618,
      "tal": 619,
      "Ġsame": 620,
      "Ġcm": 621,
      "low": 622,
      "Ġfi": 623,
      "ĠÏī": 624,
      "Ġsecond": 625,
      "strum": 626,
      "and": 627,
      "Ġvector": 628,
      "Ġbattery": 629,
      "Ġoh": 630,
      "if": 631,
      "Ġother": 632,
      "Ġabove": 633,
      "Ġrep": 634,
      "ĠCalculate": 635,
      "Ġcom": 636,
      "Ġbec": 637,
      "Ġposit": 638,
      "ĠNow": 639,
      "yste": 640,
      "Î¼": 641,
      "Ġamp": 642,
      "ival": 643,
      "Ġtotal": 644,
      "eld": 645,
      "Ġimpedance": 646,
      "urn": 647,
      "op": 648,
      "ĠFind": 649,
      "ging": 650,
      "ivalent": 651,
      "ĠAl": 652,
      "ffe": 653,
      "Ġtim": 654,
      "ound": 655,
      "Ġterminal": 656,
      "iii": 657,
      "ĠÏĢ": 658,
      "18": 659,
      "Ġcomp": 660,
      "ult": 661,
      "Ġmet": 662,
      "ĠÎµ": 663,
      "gle": 664,
      "Ġz": 665,
      "ĠAB": 666,
      "Elect": 667,
      "ber": 668,
      "Ġwhere": 669,
      "ading": 670,
      "ations": 671,
      ".)": 672,
      "rence": 673,
      "Ġequal": 674,
      "otential": 675,
      "Ġ16": 676,
      "de": 677,
      "Ġout": 678,
      "Ġener": 679,
      "40": 680,
      "per": 681,
      "Ġ60": 682,
      "Ġwatt": 683,
      "phase": 684,
      "Ġthree": 685,
      "Ġused": 686,
      "Ġenergy": 687,
      "all": 688,
      "Ġvalues": 689,
      "Ġget": 690,
      "ÏĨ": 691,
      "Ġinductance": 692,
      "Ġflow": 693,
      "ds": 694,
      "Ġconstant": 695,
      "50": 696,
      "ĠCircuit": 697,
      "Ġdiffe": 698,
      "Ġmaximum": 699,
      "Ġ18": 700,
      "ature": 701,
      "Ġbran": 702,
      "Ġseen": 703,
      "Ġif": 704,
      "rans": 705,
      "pect": 706,
      "Ġ,": 707,
      "Ġinstrum": 708,
      "asure": 709,
      "Ġcharge": 710,
      "Ġcase": 711,
      "ace": 712,
      "ĠkW": 713,
      "Ġhe": 714,
      "Ġequivalent": 715,
      "iron": 716,
      "Ġconduct": 717,
      "ose": 718,
      "ual": 719,
      "ĠCurrent": 720,
      "ĠPower": 721,
      "Ġapplied": 722,
      "ere": 723,
      "tain": 724,
      "Ġmo": 725,
      "rop": 726,
      "13": 727,
      "Ġad": 728,
      "ensity": 729,
      "ersity": 730,
      "Ġdef": 731,
      "Ġtime": 732,
      "ages": 733,
      "19": 734,
      "Ġfield": 735,
      "ater": 736,
      "Ġneg": 737,
      "Ġrel": 738,
      "Ġelectric": 739,
      "Ġmay": 740,
      "ĠUniversity": 741,
      "Ġcell": 742,
      "raw": 743,
      "ram": 744,
      "Ġnetwork": 745,
      "ue": 746,
      "eterm": 747,
      "alance": 748,
      "ions": 749,
      "ĠWhen": 750,
      "Ġform": 751,
      "ĠJ": 752,
      "ince": 753,
      "ĠThis": 754,
      "Ġdirection": 755,
      "aus": 756,
      "Ġse": 757,
      "Ġangle": 758,
      "ight": 759,
      "Ġrespect": 760,
      "Ġreact": 761,
      "ĠSince": 762,
      "24": 763,
      "Ġact": 764,
      "Ġrequ": 765,
      "ĠSu": 766,
      "gth": 767,
      "Ġmagnetic": 768,
      "36": 769,
      "hod": 770,
      "Î¸": 771,
      "con": 772,
      "Ġthere": 773,
      "ero": 774,
      "ired": 775,
      "ress": 776,
      "ĠEn": 777,
      "17": 778,
      "Ġpotential": 779,
      "Ġexp": 780,
      "ari": 781,
      "ment": 782,
      "Ġcapacitance": 783,
      "Ġterminals": 784,
      "ffic": 785,
      "Ġinc": 786,
      "urns": 787,
      "Ġtheir": 788,
      "Ġforce": 789,
      "ilar": 790,
      "ide": 791,
      "Ġzero": 792,
      "ollow": 793,
      "ĠâĢĺ": 794,
      "Ġlag": 795,
      "que": 796,
      "imilar": 797,
      "Ġpositive": 798,
      "Ġqu": 799,
      "32": 800,
      "Ġtaken": 801,
      "Ġinto": 802,
      "cal": 803,
      "Ġalso": 804,
      "Ġstar": 805,
      "Ġany": 806,
      "ause": 807,
      "Ġrequired": 808,
      "Ġar": 809,
      "Ġwould": 810,
      "Ġdrop": 811,
      "Ġ120": 812,
      "ven": 813,
      "ĠAn": 814,
      "ional": 815,
      "Ġresistances": 816,
      "Ġbranch": 817,
      "aving": 818,
      "ri": 819,
      "Ġbeen": 820,
      "orem": 821,
      "ffici": 822,
      "ĠÎĶ": 823,
      "Ġâİ¢": 824,
      "put": 825,
      "Î©Î©Î©Î©": 826,
      "Ġ40": 827,
      "Ġiron": 828,
      "Ġtrans": 829,
      "agram": 830,
      "ĠHz": 831,
      "Ġplates": 832,
      "ab": 833,
      "up": 834,
      "vi": 835,
      "ors": 836,
      "rt": 837,
      "Ġfollow": 838,
      "ged": 839,
      "Ġ17": 840,
      "amp": 841,
      "itt": 842,
      "emp": 843,
      "Ġso": 844,
      "ange": 845,
      "ĠCon": 846,
      "Ġ199": 847,
      "dit": 848,
      "Ġrepres": 849,
      "lo": 850,
      "Ġsyste": 851,
      "ĠWh": 852,
      "ined": 853,
      "orque": 854,
      "Ġnod": 855,
      "45": 856,
      "Ġvari": 857,
      "ĠÎ©Î©Î©Î©Î©": 858,
      "Ġmeasure": 859,
      "60": 860,
      "Ġro": 861,
      "Ġob": 862,
      "Ġhaving": 863,
      "arge": 864,
      "tr": 865,
      "Ġdiagram": 866,
      "75": 867,
      "Ġair": 868,
      "Ġbut": 869,
      "Ġfound": 870,
      "Ġaltern": 871,
      "100": 872,
      "ĠWb": 873,
      "11": 874,
      "cle": 875,
      "Ġreading": 876,
      "ĠÎ¦": 877,
      "form": 878,
      "Ġ...(": 879,
      "Ġnegative": 880,
      "etermine": 881,
      "mon": 882,
      "Ġx": 883,
      "Ġohms": 884,
      "ise": 885,
      "Ġpr": 886,
      "Ġcomb": 887,
      "emper": 888,
      "Ġover": 889,
      "Ġdt": 890,
      "Ġdensity": 891,
      "istance": 892,
      "Ġvoltages": 893,
      "otal": 894,
      "ider": 895,
      "Ġam": 896,
      "reas": 897,
      "Ġ23": 898,
      "Ġdue": 899,
      "ĠTotal": 900,
      "ĠÎ±": 901,
      "Ġnum": 902,
      "ĠLet": 903,
      "omb": 904,
      "emperature": 905,
      "Ġinstrument": 906,
      "Ġconsist": 907,
      "ick": 908,
      "ĠâİĽ": 909,
      "Ġlead": 910,
      "Ġdeflect": 911,
      "alanced": 912,
      "Ġrem": 913,
      "22": 914,
      "35": 915,
      "ted": 916,
      "ong": 917,
      "Ġonly": 918,
      "Ġcoils": 919,
      "Ġmean": 920,
      "Fig": 921,
      "Ġtan": 922,
      "Ġturns": 923,
      "Ġarea": 924,
      "oth": 925,
      "ĠkV": 926,
      "ĠRes": 927,
      "Ġ400": 928,
      "Ġâİľ": 929,
      "âĪłâĪł": 930,
      "Ġbecause": 931,
      "Ġsystem": 932,
      "Ġ?": 933,
      "Ġsuch": 934,
      "Ġshould": 935,
      "66": 936,
      "ust": 937,
      "yp": 938,
      "ers": 939,
      "Ġperm": 940,
      "28": 941,
      "Ġwave": 942,
      "Ġresult": 943,
      "Ġpass": 944,
      "otor": 945,
      "Ġ90": 946,
      "Ġwattmeter": 947,
      "Ġtorque": 948,
      "Ġgener": 949,
      "ĠâİŁ": 950,
      "pend": 951,
      "90": 952,
      "nown": 953,
      "Ġy": 954,
      "ffect": 955,
      "Ġcar": 956,
      "Ġen": 957,
      "itu": 958,
      "Ġdraw": 959,
      "umed": 960,
      "Ġ1000": 961,
      "aterial": 962,
      "irst": 963,
      "Hz": 964,
      "ved": 965,
      "Ġthese": 966,
      "Ġ24": 967,
      "Ġmm": 968,
      "33": 969,
      "uring": 970,
      "Ġref": 971,
      "âİ¥": 972,
      "ength": 973,
      "Ġreactance": 974,
      "ĠEng": 975,
      "Ġno": 976,
      "verage": 977,
      "34": 978,
      "Ġreson": 979,
      "ie": 980,
      "Ġtemperature": 981,
      "ane": 982,
      "Î¼Î¼": 983,
      "Ġcompon": 984,
      "Ġcircuits": 985,
      "vers": 986,
      "rid": 987,
      "Ġcalculate": 988,
      "Ġdifference": 989,
      "connected": 990,
      "Ġboth": 991,
      "ĠAT": 992,
      "ign": 993,
      "ular": 994,
      "vious": 995,
      "ĠâİĿ": 996,
      "Ġbecom": 997,
      "circuit": 998,
      "ke": 999,
      "ta": 1000,
      "Îµ": 1001,
      "Ġshort": 1002,
      "Ġnumber": 1003,
      "26": 1004,
      "io": 1005,
      "Ġhen": 1006,
      "Ġmaterial": 1007,
      "Ġalternating": 1008,
      "aced": 1009,
      "ycle": 1010,
      "Ġund": 1011,
      "ator": 1012,
      "Ġloss": 1013,
      "ĠCircuits": 1014,
      "Ġrespective": 1015,
      "Ġmeter": 1016,
      "Ġâİł": 1017,
      "av": 1018,
      "imilarly": 1019,
      "te": 1020,
      "Ġwire": 1021,
      "ĠâĪ«": 1022,
      "ĠArt": 1023,
      "ĠTheven": 1024,
      "Ġphas": 1025,
      "ternal": 1026,
      "Ġfollowing": 1027,
      "pur": 1028,
      "ÃĹÃĹ": 1029,
      "Ġlength": 1030,
      "Ġrad": 1031,
      "Ġequation": 1032,
      "âĪłâĪĴ": 1033,
      "ry": 1034,
      "Ġtheorem": 1035,
      "Ġlin": 1036,
      "duce": 1037,
      "ĠkVA": 1038,
      "23": 1039,
      "Ġinduced": 1040,
      "Ġhigh": 1041,
      "Ġâİŀ": 1042,
      "Ġconductor": 1043,
      "ĠThevenin": 1044,
      "ĠCo": 1045,
      "ĠWhat": 1046,
      "Ġ|": 1047,
      "Ġ45": 1048,
      "Ġâİ¡": 1049,
      "Ġste": 1050,
      "Ġohm": 1051,
      ")]": 1052,
      "ments": 1053,
      "ule": 1054,
      "unt": 1055,
      "Ġpart": 1056,
      "ral": 1057,
      "Ġplate": 1058,
      "est": 1059,
      "Ġ36": 1060,
      "ĠSimilarly": 1061,
      "elta": 1062,
      "Ġmethod": 1063,
      "Ġunder": 1064,
      "cos": 1065,
      "ium": 1066,
      "Ġall": 1067,
      "54": 1068,
      "par": 1069,
      "Ġtyp": 1070,
      "Ġopen": 1071,
      "ath": 1072,
      "Ġful": 1073,
      "Ġkg": 1074,
      "Ġnode": 1075,
      "ilter": 1076,
      "Ġprop": 1077,
      "Ġsupplied": 1078,
      "erence": 1079,
      "Ġup": 1080,
      "Ġfirst": 1081,
      "Ġcomple": 1082,
      "ĠDetermine": 1083,
      "ĠEngg": 1084,
      "oid": 1085,
      "ys": 1086,
      "ĠVolt": 1087,
      "Ġexpress": 1088,
      "ges": 1089,
      "Ġelectr": 1090,
      "âĢĵ": 1091,
      "Ïīt": 1092,
      "ever": 1093,
      "Ġpoints": 1094,
      "Ġmoving": 1095,
      "itude": 1096,
      "Ġsur": 1097,
      "ens": 1098,
      "Ġdec": 1099,
      "agpur": 1100,
      "Ġproduced": 1101,
      "Ġcor": 1102,
      "Ġ[(": 1103,
      "ĠOb": 1104,
      "Ġind": 1105,
      "Ġsm": 1106,
      "Ġsources": 1107,
      "are": 1108,
      "atio": 1109,
      "Ġjo": 1110,
      "Ġâİ¥": 1111,
      "encies": 1112,
      "200": 1113,
      "Ġdo": 1114,
      "Ġ31": 1115,
      "Ġ500": 1116,
      "44": 1117,
      "che": 1118,
      "Ġinstant": 1119,
      "ĠAt": 1120,
      "Ġver": 1121,
      "Ġvolts": 1122,
      "ĠAll": 1123,
      "br": 1124,
      "co": 1125,
      "Ġopp": 1126,
      "Ġpath": 1127,
      "Ġwork": 1128,
      "ivity": 1129,
      "Ġproport": 1130,
      ".,": 1131,
      "07": 1132,
      "43": 1133,
      "ics": 1134,
      "pper": 1135,
      "....": 1136,
      "Ġ250": 1137,
      "Ġobtain": 1138,
      "Ġsmall": 1139,
      "/(": 1140,
      "Ġelect": 1141,
      "ĠSt": 1142,
      "ometer": 1143,
      "ĠÎ¼F": 1144,
      "Ġunit": 1145,
      "âĪĴâĪĴâĪĴâĪĴ": 1146,
      "Ġflowing": 1147,
      "Ġconsists": 1148,
      "ole": 1149,
      "Ġcl": 1150,
      "Ġsi": 1151,
      "Ġmagn": 1152,
      "ingle": 1153,
      "ĠHow": 1154,
      "ĠNo": 1155,
      "Ġdisch": 1156,
      "Ġdirect": 1157,
      "Ġdifferent": 1158,
      "Ġammeter": 1159,
      "21": 1160,
      "Ġvoltmeter": 1161,
      "ored": 1162,
      "Ġrot": 1163,
      "ting": 1164,
      "inc": 1165,
      "Ġsum": 1166,
      "ĠLaw": 1167,
      "Ġcombin": 1168,
      "Ġ(âĪĴ": 1169,
      "Ġins": 1170,
      "Ġeffect": 1171,
      "ade": 1172,
      "Ġ2003": 1173,
      "Ġusing": 1174,
      "Ġrepresent": 1175,
      "47": 1176,
      "95": 1177,
      "err": 1178,
      "ĠBC": 1179,
      "alled": 1180,
      "Ġrespectively": 1181,
      "37": 1182,
      "ding": 1183,
      "fter": 1184,
      "Ġconnect": 1185,
      "cale": 1186,
      "Ġdeflection": 1187,
      "electric": 1188,
      "ĠMe": 1189,
      "Ġincreas": 1190,
      "Ġreference": 1191,
      "viously": 1192,
      "Ġaverage": 1193,
      "Ġoper": 1194,
      "Ġ230": 1195,
      "one": 1196,
      "alf": 1197,
      "ridge": 1198,
      "Ġbecomes": 1199,
      "Ġhence": 1200,
      "ck": 1201,
      "Ġsingle": 1202,
      "Ġ22": 1203,
      "Ġbeing": 1204,
      "lying": 1205,
      "pt": 1206,
      "Ġerr": 1207,
      "Ġass": 1208,
      "Ġquant": 1209,
      "aneous": 1210,
      "48": 1211,
      "53": 1212,
      "face": 1213,
      "Ġthey": 1214,
      "ĠâĪĿ": 1215,
      "armon": 1216,
      "osed": 1217,
      "Ġloop": 1218,
      "Ġrelative": 1219,
      "Ġproportional": 1220,
      "Ġcur": 1221,
      "ĠUs": 1222,
      "induct": 1223,
      "Ġratio": 1224,
      "Ġ80": 1225,
      "agnetic": 1226,
      "Ġcharging": 1227,
      "ĠAlso": 1228,
      "42": 1229,
      "Ġmotor": 1230,
      "Ġlaw": 1231,
      "Ġcondit": 1232,
      "elf": 1233,
      "Ġoutput": 1234,
      "fficient": 1235,
      "Ġtype": 1236,
      "52": 1237,
      "Ġthan": 1238,
      "ible": 1239,
      "ne": 1240,
      "ring": 1241,
      "cess": 1242,
      "Ġknown": 1243,
      "Ġ*": 1244,
      "Ġcalled": 1245,
      "Ġrevers": 1246,
      "oly": 1247,
      "ĠWe": 1248,
      "Ġchange": 1249,
      "ically": 1250,
      "Ġdrawn": 1251,
      "Ġsurface": 1252,
      "05": 1253,
      "lic": 1254,
      "Ġcent": 1255,
      "ard": 1256,
      "Ġproduce": 1257,
      "trol": 1258,
      ")=": 1259,
      "Ġmade": 1260,
      "ĠTwo": 1261,
      "Ġlow": 1262,
      "Ġtransform": 1263,
      "ysis": 1264,
      "out": 1265,
      "Ġtr": 1266,
      "Ġbalanced": 1267,
      "Â°.": 1268,
      "inding": 1269,
      "Ġsw": 1270,
      "Ġinternal": 1271,
      "Ġrate": 1272,
      "31": 1273,
      "Ġ26": 1274,
      "Ġduring": 1275,
      "Ġrev": 1276,
      "arallel": 1277,
      "Ġfrequencies": 1278,
      "pendent": 1279,
      "ax": 1280,
      "sin": 1281,
      "Ġ106": 1282,
      "Ġnon": 1283,
      "Ġinductive": 1284,
      "Ġmeasured": 1285,
      "Ġfull": 1286,
      "Ġindic": 1287,
      "ho": 1288,
      "Ġsol": 1289,
      "ĠRe": 1290,
      "ĠCapacit": 1291,
      "Ġhalf": 1292,
      "Ġsub": 1293,
      "Ġnoted": 1294,
      "Î±": 1295,
      "esh": 1296,
      "ĠâĪĴâĪĴâĪĴâĪĴâĪĴ": 1297,
      "Ġgr": 1298,
      "Ġlog": 1299,
      "Ġ2002": 1300,
      "Ġconsumed": 1301,
      "ĠObviously": 1302,
      "ĠUsing": 1303,
      "27": 1304,
      "Ġcycle": 1305,
      "Ġring": 1306,
      "Ġdielectric": 1307,
      "Ġlagging": 1308,
      "Ġphasor": 1309,
      "Ġmagnitude": 1310,
      "57": 1311,
      "Ġ21": 1312,
      "Ġwinding": 1313,
      "Ġread": 1314,
      "Ġcoul": 1315,
      "Ġcopper": 1316,
      "Ġmagnetis": 1317,
      "Ġwater": 1318,
      "29": 1319,
      "85": 1320,
      "dt": 1321,
      "rease": 1322,
      "Ġsign": 1323,
      "Ġuse": 1324,
      "120": 1325,
      "ually": 1326,
      "Ġvery": 1327,
      "Ġopposit": 1328,
      "ĠHowever": 1329,
      "46": 1330,
      "Ġcross": 1331,
      "ess": 1332,
      "Ġgo": 1333,
      "Ġresistors": 1334,
      "ĠResistance": 1335,
      "Ġlines": 1336,
      "iz": 1337,
      "met": 1338,
      "uct": 1339,
      "ume": 1340,
      "hm": 1341,
      "mer": 1342,
      "alysis": 1343,
      "les": 1344,
      "Ġele": 1345,
      "ĠNetwork": 1346,
      "Ġgives": 1347,
      "Ġdisc": 1348,
      "ĠInduct": 1349,
      "Ġcomponent": 1350,
      "Ġcombination": 1351,
      "38": 1352,
      "55": 1353,
      "vel": 1354,
      "Ġdelta": 1355,
      "Ġsecondary": 1356,
      "ĠkWh": 1357,
      "Ġradi": 1358,
      "78": 1359,
      "ĨĴ": 1360,
      "round": 1361,
      "Ġequations": 1362,
      "Ġposition": 1363,
      "Ġresonance": 1364,
      "Ġthem": 1365,
      "ite": 1366,
      "Ġmin": 1367,
      "utral": 1368,
      "Ġstored": 1369,
      "Ġinstruments": 1370,
      "Ġobtained": 1371,
      "62": 1372,
      "posit": 1373,
      "Ġfilter": 1374,
      "Ġdiv": 1375,
      "Ġ53": 1376,
      "quence": 1377,
      "Ġharmon": 1378,
      "ameter": 1379,
      "fficiency": 1380,
      "ves": 1381,
      "ither": 1382,
      "led": 1383,
      "Ġli": 1384,
      "ental": 1385,
      "ility": 1386,
      "ady": 1387,
      "Ġshow": 1388,
      "ays": 1389,
      "Ġmeans": 1390,
      "Ġoc": 1391,
      "Ġ32": 1392,
      "ĠCD": 1393,
      "39": 1394,
      "Wb": 1395,
      "dy": 1396,
      "ĠFrom": 1397,
      "ĠCh": 1398,
      "ĠBy": 1399,
      "ĠWith": 1400,
      "Ġarm": 1401,
      "Ġerror": 1402,
      "Ġswit": 1403,
      "86": 1404,
      "der": 1405,
      "ft": 1406,
      "ĠRY": 1407,
      "ondon": 1408,
      "02": 1409,
      "80": 1410,
      "Ġ240": 1411,
      "Ġbridge": 1412,
      "ĠApp": 1413,
      "Ġrect": 1414,
      "arn": 1415,
      "ome": 1416,
      "Ġ150": 1417,
      "ĠâĪłâĪĴ": 1418,
      "Ġterms": 1419,
      "fore": 1420,
      "ough": 1421,
      "pond": 1422,
      "Ġinput": 1423,
      "ĠEq": 1424,
      "une": 1425,
      "ĠPro": 1426,
      "âĢ²âĢ²": 1427,
      "Ġrepl": 1428,
      "65": 1429,
      "efficient": 1430,
      "ĠThese": 1431,
      "Ġcont": 1432,
      "Ġâİ£": 1433,
      "âİ¦": 1434,
      "Ġneutral": 1435,
      "Ġcharged": 1436,
      "72": 1437,
      "eres": 1438,
      "ities": 1439,
      "ĠElect": 1440,
      "ĠLo": 1441,
      "resis": 1442,
      "respond": 1443,
      "ific": 1444,
      "ysteresis": 1445,
      "Ġampere": 1446,
      "Ġrepresents": 1447,
      "Ġquantity": 1448,
      "08": 1449,
      "gap": 1450,
      "ient": 1451,
      "Ġafter": 1452,
      "itial": 1453,
      "Ġmust": 1454,
      "rength": 1455,
      "ĠEqu": 1456,
      "Ġbeh": 1457,
      "ĠMet": 1458,
      "Ġresultant": 1459,
      "Ġopposite": 1460,
      "500": 1461,
      "sect": 1462,
      "Ġeither": 1463,
      "Ġâİ¤": 1464,
      "âİ¤": 1465,
      "Ġbatteries": 1466,
      "Ġimpedances": 1467,
      "Ġhel": 1468,
      "oidal": 1469,
      "cur": 1470,
      "ject": 1471,
      "ĠÂ": 1472,
      "red": 1473,
      "Ġlarge": 1474,
      "ĠSum": 1475,
      "Ġmain": 1476,
      "Ġabs": 1477,
      "Ġcells": 1478,
      "Ġremain": 1479,
      "Ġelectro": 1480,
      "400": 1481,
      "mical": 1482,
      "ang": 1483,
      "Ġefficiency": 1484,
      "usoidal": 1485,
      "Ġactive": 1486,
      "Ġelectron": 1487,
      "cor": 1488,
      "inter": 1489,
      "cept": 1490,
      "ĠAC": 1491,
      "Ġmore": 1492,
      "Ġlong": 1493,
      "Ġâİ¦": 1494,
      "imary": 1495,
      "iform": 1496,
      "Ġinstantaneous": 1497,
      "68": 1498,
      "96": 1499,
      "eg": 1500,
      "Ġed": 1501,
      "Ġhour": 1502,
      "Ġuniform": 1503,
      "Nagpur": 1504,
      "wise": 1505,
      "ĠmA": 1506,
      "Ġcontrol": 1507,
      "Ġsinusoidal": 1508,
      "âİ£": 1509,
      "Ġexpression": 1510,
      "Ġbehind": 1511,
      "67": 1512,
      "ail": 1513,
      "Ġwound": 1514,
      "Ġelectrical": 1515,
      "ast": 1516,
      "ĠParallel": 1517,
      "ack": 1518,
      "ĠVoltage": 1519,
      "Ġcoulomb": 1520,
      "56": 1521,
      "87": 1522,
      "ice": 1523,
      "xed": 1524,
      "ym": 1525,
      "ergy": 1526,
      "olar": 1527,
      "ĠLe": 1528,
      "ĠÏģ": 1529,
      "Ġwhose": 1530,
      "Ġalong": 1531,
      "ĠcosÏĨ": 1532,
      "Ġcapacitors": 1533,
      "ĠThree": 1534,
      "ultip": 1535,
      "Ġsepar": 1536,
      "ĠSupp": 1537,
      "Ġcorrespond": 1538,
      "Ġclosed": 1539,
      "eab": 1540,
      "Ġself": 1541,
      "Ġpure": 1542,
      "Ġmesh": 1543,
      "Ġcontain": 1544,
      "Ġrange": 1545,
      "Ġchan": 1546,
      "Ġvariable": 1547,
      "ickel": 1548,
      "Ġgeneral": 1549,
      "Ġdischarge": 1550,
      "Ġshows": 1551,
      "Ġhelp": 1552,
      "81": 1553,
      "cent": 1554,
      "eed": 1555,
      "lain": 1556,
      "ĠâĨĴ": 1557,
      "Ġthick": 1558,
      "irch": 1559,
      "Â°)": 1560,
      "Ġplaced": 1561,
      "ifi": 1562,
      "Ġsequence": 1563,
      "ĠEnergy": 1564,
      "Ġend": 1565,
      "ĠMethod": 1566,
      "(âĪĴ": 1567,
      "01": 1568,
      "hour": 1569,
      "mitt": 1570,
      "Î»": 1571,
      "ĠTheorem": 1572,
      "ĠjX": 1573,
      "ides": 1574,
      "Ġfixed": 1575,
      "Ġswitch": 1576,
      "04": 1577,
      "ile": 1578,
      "ub": 1579,
      "yd": 1580,
      "Ġax": 1581,
      "Ġscale": 1582,
      "Ġ27": 1583,
      "Ġ28": 1584,
      "Ġmut": 1585,
      "orems": 1586,
      "ĠYB": 1587,
      "ĠKirch": 1588,
      "Ġcommon": 1589,
      "ĠSub": 1590,
      "Ġprimary": 1591,
      "Ġ||": 1592,
      "hoff": 1593,
      "49": 1594,
      "Ġav": 1595,
      "unction": 1596,
      "Ġwhole": 1597,
      "amental": 1598,
      "ĠâĢ²": 1599,
      "agnetis": 1600,
      "undamental": 1601,
      "Ġsteady": 1602,
      "Ġcurve": 1603,
      "fer": 1604,
      "wire": 1605,
      "Ġfall": 1606,
      "Ġdes": 1607,
      "Ġlim": 1608,
      "Ġwhat": 1609,
      "Ġstr": 1610,
      "Ġspec": 1611,
      "ered": 1612,
      "tract": 1613,
      "ĠKirchhoff": 1614,
      "314": 1615,
      "41": 1616,
      "59": 1617,
      "Ġ&": 1618,
      "Ġ-": 1619,
      "Ġinter": 1620,
      "Ġwas": 1621,
      "Ġ300": 1622,
      "ĠElectric": 1623,
      "ĠSeries": 1624,
      "ĠHere": 1625,
      "Ġdiameter": 1626,
      "Ġ2000": 1627,
      "Ġlags": 1628,
      "Ġleads": 1629,
      "incip": 1630,
      "Ġinsul": 1631,
      "Ġinitial": 1632,
      "ards": 1633,
      "Ġnew": 1634,
      "alcul": 1635,
      "Ġleading": 1636,
      "ĠÏīt": 1637,
      "Ġwhereas": 1638,
      "dependent": 1639,
      "Ġâİ¢âİ£": 1640,
      "63": 1641,
      "gen": 1642,
      "gain": 1643,
      "hed": 1644,
      "Ġdr": 1645,
      "ĠÎ»": 1646,
      "Ġcore": 1647,
      "other": 1648,
      "Ġstrength": 1649,
      "Ġspring": 1650,
      "Ġwattmeters": 1651,
      "Ġcarry": 1652,
      "lux": 1653,
      "van": 1654,
      "Ġche": 1655,
      "Ġsome": 1656,
      "Ġman": 1657,
      "arad": 1658,
      "ĠVA": 1659,
      "Ġ600": 1660,
      "apacity": 1661,
      "Ġstand": 1662,
      "Ġdiss": 1663,
      "ormal": 1664,
      "Ġflows": 1665,
      "Ġheat": 1666,
      "58": 1667,
      "DC": 1668,
      "rical": 1669,
      "alvan": 1670,
      "ĠNot": 1671,
      "âİ¢": 1672,
      "Ġreadings": 1673,
      "Ġjoule": 1674,
      "Ġdoes": 1675,
      "ches": 1676,
      "Ġrepresented": 1677,
      "Ġrevolution": 1678,
      "76": 1679,
      "eak": 1680,
      "ga": 1681,
      "ked": 1682,
      "Ġ=âĪĴ": 1683,
      "Ġside": 1684,
      "Ġsimilar": 1685,
      "ĠdB": 1686,
      "Ġlamp": 1687,
      "Ġconver": 1688,
      "ĠPhase": 1689,
      "ĠDraw": 1690,
      "ombay": 1691,
      "Ġcomplex": 1692,
      "ĠSummer": 1693,
      "eability": 1694,
      "alvanometer": 1695,
      "91": 1696,
      "ries": 1697,
      "ÎĶ": 1698,
      "edium": 1699,
      "icular": 1700,
      "Ġear": 1701,
      "ĠThen": 1702,
      "ĠTheorems": 1703,
      "Ġext": 1704,
      "Ġapplic": 1705,
      "Ġconsider": 1706,
      "Ġaddit": 1707,
      "Ġincrease": 1708,
      "Ġcomponents": 1709,
      "ĠMeasure": 1710,
      "inductive": 1711,
      "uctance": 1712,
      "position": 1713,
      "Ġeddy": 1714,
      "Art": 1715,
      "ded": 1716,
      "ph": 1717,
      "pass": 1718,
      "Ġsym": 1719,
      "att": 1720,
      "arged": 1721,
      "Ġnormal": 1722,
      "adr": 1723,
      "Ġgre": 1724,
      "Ġrise": 1725,
      "ĠNort": 1726,
      "ĠInstrum": 1727,
      "Ġprov": 1728,
      "amping": 1729,
      "Ġpermitt": 1730,
      "ĠComp": 1731,
      "Ġdecreas": 1732,
      "Ġlike": 1733,
      "06": 1734,
      "83": 1735,
      "balanced": 1736,
      "Ġcut": 1737,
      "Ġsqu": 1738,
      "Ġwr": 1739,
      "Ġdone": 1740,
      "arging": 1741,
      "Ġ35": 1742,
      "ĠThere": 1743,
      "Ġbelow": 1744,
      "Ġshunt": 1745,
      "Ġproduct": 1746,
      "Ġtake": 1747,
      "perposition": 1748,
      "Ġarran": 1749,
      "Ġdirectly": 1750,
      "cording": 1751,
      "Ġdissip": 1752,
      "Electrical": 1753,
      "Ġet": 1754,
      "Ġdistance": 1755,
      "ĠVI": 1756,
      "Ġcoefficient": 1757,
      "Â°=": 1758,
      "ĠPb": 1759,
      "Ġke": 1760,
      "ĠDe": 1761,
      "Ġtakes": 1762,
      "Ġreactive": 1763,
      "ĠCons": 1764,
      "ydro": 1765,
      "ĠNorton": 1766,
      "fin": 1767,
      "Ġband": 1768,
      "ĠmH": 1769,
      "ĠFlux": 1770,
      "ĠÎ²": 1771,
      "Ġright": 1772,
      "Ġsuit": 1773,
      "Ġconductors": 1774,
      "Ġresonant": 1775,
      "Ġcomplete": 1776,
      "Ġetc": 1777,
      "ount": 1778,
      "volt": 1779,
      "als": 1780,
      "Ġfact": 1781,
      "ĠBatter": 1782,
      "Ġhysteresis": 1783,
      "Ġrule": 1784,
      "lock": 1785,
      "Ġcarries": 1786,
      "coil": 1787,
      "velop": 1788,
      "Ġharmonic": 1789,
      "Ġmutual": 1790,
      "77": 1791,
      "ibr": 1792,
      "Ġcalcul": 1793,
      "Ġsl": 1794,
      "itut": 1795,
      "Ġpre": 1796,
      "Ġpolar": 1797,
      "Ġing": 1798,
      "Ġbalance": 1799,
      "ances": 1800,
      "Ġnickel": 1801,
      "stitut": 1802,
      "elga": 1803,
      "ĠMax": 1804,
      "Ġexample": 1805,
      "Ġcombined": 1806,
      "Ġconditions": 1807,
      "elgaum": 1808,
      ")+": 1809,
      "bed": 1810,
      "em": 1811,
      "known": 1812,
      "Ġcapacity": 1813,
      "Ġoff": 1814,
      "atic": 1815,
      "ĠAss": 1816,
      "Ġmat": 1817,
      "Ġdetermine": 1818,
      "Ġhow": 1819,
      "Ġgalvanometer": 1820,
      "ĠNagpur": 1821,
      "ode": 1822,
      "Ġbranches": 1823,
      "Ġremo": 1824,
      "âĪłâĪłâĪłâĪł": 1825,
      "Ġreplaced": 1826,
      "ĠConsider": 1827,
      "64": 1828,
      "79": 1829,
      "ear": 1830,
      "for": 1831,
      "king": 1832,
      "ised": 1833,
      "Ġ29": 1834,
      "atak": 1835,
      "Ġpur": 1836,
      "ĠSource": 1837,
      "Ġnet": 1838,
      "Ġpole": 1839,
      "resent": 1840,
      "Ġ2001": 1841,
      "Ġdevelop": 1842,
      "ĠKarn": 1843,
      "Ġequals": 1844,
      "Ġwatts": 1845,
      "Ġfollows": 1846,
      "Ġvarious": 1847,
      "Ġpassing": 1848,
      "Ġreversed": 1849,
      "ataka": 1850,
      "ĠKarnataka": 1851,
      "70": 1852,
      "by": 1853,
      "nam": 1854,
      "ways": 1855,
      "Î¦": 1856,
      "Ġcircu": 1857,
      "Ġpress": 1858,
      "Ġorder": 1859,
      "Ġsince": 1860,
      "Ġposs": 1861,
      "aking": 1862,
      "ÏĢÎµ": 1863,
      "Ġ1992": 1864,
      "Ġpract": 1865,
      "Ġamount": 1866,
      "Ġpermeability": 1867,
      "ĠSuppose": 1868,
      "ĠInstruments": 1869,
      "71": 1870,
      "lar": 1871,
      "Ġindependent": 1872,
      "ĠAd": 1873,
      "Ġmedium": 1874,
      "Ġve": 1875,
      "ĠRel": 1876,
      "utor": 1877,
      "ĠBh": 1878,
      "ĠBelgaum": 1879,
      "Ġintensity": 1880,
      "Ġdefined": 1881,
      "ĠAnalysis": 1882,
      "Ġjoined": 1883,
      "Ġcondition": 1884,
      "Ġcorresponding": 1885,
      "ĠNote": 1886,
      "Ġpurp": 1887,
      "cid": 1888,
      "ful": 1889,
      "lig": 1890,
      "man": 1891,
      "turns": 1892,
      "uch": 1893,
      "Ġ220": 1894,
      "ĠTrans": 1895,
      "Ġ33": 1896,
      "Ġalways": 1897,
      "Ġ180": 1898,
      "Ġneglig": 1899,
      "Ġdrops": 1900,
      "Ġpermittivity": 1901,
      "73": 1902,
      "ib": 1903,
      "lag": 1904,
      "ness": 1905,
      "pl": 1906,
      "Ġset": 1907,
      "Ġanother": 1908,
      "Ġreduced": 1909,
      "Ġnow": 1910,
      "ĠBetween": 1911,
      "ĠâĢĶ": 1912,
      "Ġ75": 1913,
      "Ġnecess": 1914,
      "ĠSuch": 1915,
      "Ġexplain": 1916,
      "82": 1917,
      "Ġca": 1918,
      "Ġsus": 1919,
      "Ġbr": 1920,
      "ĠValu": 1921,
      "uming": 1922,
      "Ġunity": 1923,
      "ÏīC": 1924,
      "itten": 1925,
      "Î¼Î¼Î¼Î¼": 1926,
      "Ġassumed": 1927,
      "Ġabsor": 1928,
      "Ġaxis": 1929,
      "Ġsquare": 1930,
      "93": 1931,
      "iod": 1932,
      "oc": 1933,
      "sion": 1934,
      "vant": 1935,
      "Ġsa": 1936,
      "angle": 1937,
      "Ġmultip": 1938,
      "olume": 1939,
      "ĠTutor": 1940,
      "ird": 1941,
      "ided": 1942,
      "Ġwhile": 1943,
      "ĠâĪłâĪłâĪłâĪłâĪł": 1944,
      "Ġlet": 1945,
      "Ġfinding": 1946,
      "Ġmetre": 1947,
      "Ġactual": 1948,
      "ĠMeasurements": 1949,
      "Ġwritten": 1950,
      "stituting": 1951,
      "Ġnegligible": 1952,
      "ĠTutorial": 1953,
      "current": 1954,
      "dÎ¸": 1955,
      "ling": 1956,
      "ton": 1957,
      "Ġway": 1958,
      "ĠâĪĤ": 1959,
      "ĠCA": 1960,
      "ĠSec": 1961,
      "ĠBut": 1962,
      "Ġgap": 1963,
      "ĠPl": 1964,
      "ĠMagnetic": 1965,
      "nection": 1966,
      "Ġdepen": 1967,
      "opal": 1968,
      "âİ¥âİ¦": 1969,
      "ĠkVAR": 1970,
      "Ġsimple": 1971,
      "Ġincreases": 1972,
      "Ġtransformer": 1973,
      "Ġmagnetising": 1974,
      "ĠLoad": 1975,
      "Ġremoved": 1976,
      "ĠBhopal": 1977,
      "Ġdepends": 1978,
      ")(": 1979,
      "88": 1980,
      "CL": 1981,
      "air": 1982,
      "ield": 1983,
      "Ġinfin": 1984,
      "igher": 1985,
      "Ġlight": 1986,
      "cuss": 1987,
      "Ġ103": 1988,
      "ĠLondon": 1989,
      "aph": 1990,
      "acid": 1991,
      "ĠOne": 1992,
      "ĠOhm": 1993,
      "though": 1994,
      "Ġspeed": 1995,
      "Ġamperes": 1996,
      "Ġadj": 1997,
      "rix": 1998,
      "Ġ1991": 1999,
      "ÃĹÃĹÃĹÃĹ": 2000,
      "ĠCapacitor": 2001,
      "ĠProble": 2002,
      "factor": 2003,
      "ia": 2004,
      "Ġfinal": 2005,
      "Ġwell": 2006,
      "ĠmWb": 2007,
      "Ġmuch": 2008,
      "Ġvie": 2009,
      "rox": 2010,
      "ĠFilter": 2011,
      "Ġbefore": 2012,
      "Ġhydro": 2013,
      "Ġkcal": 2014,
      "Ġweight": 2015,
      "ÏīL": 2016,
      "Ġvectors": 2017,
      "Ġtimes": 2018,
      "Ġcorre": 2019,
      "ĠStar": 2020,
      "Ġsimp": 2021,
      "olyphase": 2022,
      "Ġcentre": 2023,
      "Ġarmature": 2024,
      "mittance": 2025,
      "Ġview": 2026,
      "98": 2027,
      "din": 2028,
      "scale": 2029,
      "Ġcer": 2030,
      "ĠAmp": 2031,
      "Ġreg": 2032,
      "ĠThey": 2033,
      "ĠPh": 2034,
      "ĠPotential": 2035,
      "ĠkHz": 2036,
      "ĠDi": 2037,
      "Ġcapacitive": 2038,
      "akage": 2039,
      "ĠIts": 2040,
      "ĠKCL": 2041,
      "Ġdeflecting": 2042,
      "Ġproduces": 2043,
      "Ġradian": 2044,
      "ĠSubstituting": 2045,
      "AT": 2046,
      "Ġagain": 2047,
      "Ġfour": 2048,
      "Ġfundamental": 2049,
      "Ġwor": 2050,
      "Ġdeterm": 2051,
      "Ġdamping": 2052,
      "ĠVector": 2053,
      "ĠÃĹÃĹÃĹÃĹÃĹ": 2054,
      "Ġim": 2055,
      "Ġ63": 2056,
      "Ġstate": 2057,
      "Ġcho": 2058,
      "Ġcharges": 2059,
      "Ġleft": 2060,
      "stru": 2061,
      "Ġdiscuss": 2062,
      "Ġacts": 2063,
      "rib": 2064,
      "Ġgenerator": 2065,
      "aves": 2066,
      "Ġincreased": 2067,
      "Ġreads": 2068,
      "inciple": 2069,
      "Ġdriv": 2070,
      "Ġdissipated": 2071,
      "Ġsuitable": 2072,
      "51": 2073,
      "vent": 2074,
      "yl": 2075,
      "onant": 2076,
      "Ġput": 2077,
      "ory": 2078,
      "Ġdx": 2079,
      "Ġdist": 2080,
      "ily": 2081,
      "ĠkÎ©": 2082,
      "active": 2083,
      "Ġabout": 2084,
      "Ġinductor": 2085,
      "Ġinduction": 2086,
      "Ġtransfer": 2087,
      "Ġeffective": 2088,
      "sectional": 2089,
      "Ġhours": 2090,
      "ailable": 2091,
      "Ġgreater": 2092,
      "lockwise": 2093,
      "RG": 2094,
      "cm": 2095,
      "ohm": 2096,
      "ts": 2097,
      "inu": 2098,
      "Ġcal": 2099,
      "Ġmove": 2100,
      "ute": 2101,
      "Ġhigher": 2102,
      "Ġgive": 2103,
      "ĠMotor": 2104,
      "gebr": 2105,
      "Ġ70": 2106,
      "lif": 2107,
      "Ġapplying": 2108,
      "Ġperiod": 2109,
      "Ġphases": 2110,
      "Ġsteel": 2111,
      "Ġelectroly": 2112,
      "ĠApplying": 2113,
      "Ġrectifi": 2114,
      "Ġremains": 2115,
      "agnetism": 2116,
      "Ġpressure": 2117,
      "gebra": 2118,
      "1000": 2119,
      "707": 2120,
      "kg": 2121,
      "second": 2122,
      "Ġcable": 2123,
      "anent": 2124,
      "Ġpeak": 2125,
      "Ġback": 2126,
      "urther": 2127,
      "Ġthose": 2128,
      "umin": 2129,
      "Ġ800": 2130,
      "ĠOA": 2131,
      "ĠÎ¼Î¼Î¼Î¼Î¼": 2132,
      "Ġunbalanced": 2133,
      "Ġmetres": 2134,
      "Ġreluctance": 2135,
      "Ġangles": 2136,
      "ĠSuperposition": 2137,
      "Ġparts": 2138,
      "Ġelement": 2139,
      "ĠÂµ": 2140,
      "Ġmains": 2141,
      "866": 2142,
      "cycle": 2143,
      "ump": 2144,
      "Ġanalysis": 2145,
      "Ġbc": 2146,
      "Ġeas": 2147,
      "ulph": 2148,
      "ately": 2149,
      "Ġmetal": 2150,
      "Ġquadr": 2151,
      "Ġmeters": 2152,
      "Ġconnection": 2153,
      "ĠInduction": 2154,
      "Ġcontinu": 2155,
      "Ġchemical": 2156,
      "Ġnecessary": 2157,
      "Ġabsorbed": 2158,
      ")âĪĴ": 2159,
      "94": 2160,
      "PV": 2161,
      "app": 2162,
      "get": 2163,
      "pr": 2164,
      "tion": 2165,
      "ering": 2166,
      "enoid": 2167,
      "Ġbas": 2168,
      "Ġfig": 2169,
      "Ġfree": 2170,
      "Ġdown": 2171,
      "ĠIR": 2172,
      "Ġ314": 2173,
      "ases": 2174,
      "Ġ+(": 2175,
      "Ġ105": 2176,
      "Ġconj": 2177,
      "duc": 2178,
      "Ġra": 2179,
      "Ġatt": 2180,
      "ĠInd": 2181,
      "Ġmake": 2182,
      "ĠExp": 2183,
      "Ġpointer": 2184,
      "Ġless": 2185,
      "Ġunknown": 2186,
      "Ġimport": 2187,
      "Ġsphere": 2188,
      "Ġspace": 2189,
      "Ġnetworks": 2190,
      "load": 2191,
      "Ġnodes": 2192,
      "ared": 2193,
      "Ġavailable": 2194,
      "Ġsymmet": 2195,
      "ĠValue": 2196,
      "Ġsaid": 2197,
      "Ġwords": 2198,
      "RGPV": 2199,
      "OH": 2200,
      "Polyphase": 2201,
      "ires": 2202,
      "ner": 2203,
      "power": 2204,
      "uble": 2205,
      "hes": 2206,
      "Ġcast": 2207,
      "Ġox": 2208,
      "ĠAh": 2209,
      "ĠFrequ": 2210,
      "Ġ37": 2211,
      "ivider": 2212,
      "ircle": 2213,
      "mpedance": 2214,
      "Ġ48": 2215,
      "ĠBR": 2216,
      "ĠLine": 2217,
      "ĠNeg": 2218,
      "ĠUse": 2219,
      "Ġproper": 2220,
      "ĠOB": 2221,
      "ĠForm": 2222,
      "Ġconsisting": 2223,
      "Ġwaveform": 2224,
      "Ġelectrom": 2225,
      "Ġelements": 2226,
      "centage": 2227,
      "ylind": 2228,
      "74": 2229,
      "92": 2230,
      "CR": 2231,
      "ES": 2232,
      "London": 2233,
      "lies": 2234,
      "xt": 2235,
      "ying": 2236,
      "Ġ<": 2237,
      "Ġbo": 2238,
      "Ġdel": 2239,
      "ĠFactor": 2240,
      "Ġeven": 2241,
      "asuring": 2242,
      "ĠSh": 2243,
      "Ġjb": 2244,
      "ĠPune": 2245,
      "Ġalgebra": 2246,
      "Ġneed": 2247,
      "lier": 2248,
      "echan": 2249,
      "Ġplace": 2250,
      "vice": 2251,
      "Ġsolenoid": 2252,
      "Ġradius": 2253,
      "ceptance": 2254,
      "Ġchanges": 2255,
      "Ġcarrying": 2256,
      "Ġstandard": 2257,
      "Ġrevolutions": 2258,
      "Ġadjust": 2259,
      "uminium": 2260,
      ")/": 2261,
      "97": 2262,
      "fs": 2263,
      "lis": 2264,
      "pole": 2265,
      "wards": 2266,
      "Ġ%": 2267,
      "ines": 2268,
      "Ġpresent": 2269,
      "ĠAverage": 2270,
      "Ġmot": 2271,
      "Ġ52": 2272,
      "Ġ66": 2273,
      "eloc": 2274,
      "ĠNI": 2275,
      "Â°,": 2276,
      "idth": 2277,
      "109": 2278,
      "omet": 2279,
      "Ġpoles": 2280,
      "âİŀ": 2281,
      "Ġleakage": 2282,
      "Ġrotation": 2283,
      "Ġelectrons": 2284,
      "ĠLead": 2285,
      "Ġthickness": 2286,
      "Ġnewton": 2287,
      "Ġmany": 2288,
      "Ġelectrolyte": 2289,
      "gether": 2290,
      "elocity": 2291,
      "cit": 2292,
      "idu": 2293,
      "ost": 2294,
      "oint": 2295,
      "tical": 2296,
      "Ġtest": 2297,
      "ators": 2298,
      "Ġever": 2299,
      "Ġtogether": 2300,
      "ĠCR": 2301,
      "ĠCell": 2302,
      "ĠElectr": 2303,
      "Ġgro": 2304,
      "ĠDis": 2305,
      "verse": 2306,
      "olute": 2307,
      "ĠABC": 2308,
      "Ġheating": 2309,
      "Ġmost": 2310,
      "abad": 2311,
      "Ġpassed": 2312,
      "Ġrotating": 2313,
      "Ġconnections": 2314,
      "angular": 2315,
      "attmeter": 2316,
      "Ġdecreases": 2317,
      "ĠBatteries": 2318,
      "Ġpossible": 2319,
      "Ġpurpose": 2320,
      "ĠProblems": 2321,
      "Ġviewed": 2322,
      "Ġconjug": 2323,
      "854": 2324,
      "99": 2325,
      "ger": 2326,
      "ience": 2327,
      "turn": 2328,
      "ynam": 2329,
      "ĠAc": 2330,
      "Ġmass": 2331,
      "ĠField": 2332,
      "Ġ34": 2333,
      "Ġ104": 2334,
      "ĠSyste": 2335,
      "stead": 2336,
      "Electro": 2337,
      "Ġresults": 2338,
      "part": 2339,
      "Ġfully": 2340,
      "Ġpaths": 2341,
      "Ġoperating": 2342,
      "inductance": 2343,
      "Ġgraph": 2344,
      "Ġmatrix": 2345,
      "Ġcertain": 2346,
      "struction": 2347,
      "Ġcalibr": 2348,
      "idual": 2349,
      "ep": 2350,
      "iometer": 2351,
      "lu": 2352,
      "sc": 2353,
      "Ġent": 2354,
      "Ġ....": 2355,
      "Ġcol": 2356,
      "ision": 2357,
      "Ġsect": 2358,
      "Ġmic": 2359,
      "olving": 2360,
      "ĠÎ½": 2361,
      "Ġ43": 2362,
      "ĠLC": 2363,
      "Â°;": 2364,
      "mplex": 2365,
      "ĠMeter": 2366,
      "Ġaluminium": 2367,
      "Ġ2004": 2368,
      "ÏĢÏĢ": 2369,
      "Ġusually": 2370,
      "ĠAltern": 2371,
      "log": 2372,
      "Ġprinciple": 2373,
      "Ġlaws": 2374,
      "ĠInductance": 2375,
      "Ġminimum": 2376,
      "Ġlimb": 2377,
      "Ġspecific": 2378,
      "Ġconverted": 2379,
      "ĠSources": 2380,
      "025": 2381,
      "89": 2382,
      "EC": 2383,
      "gular": 2384,
      "of": 2385,
      "Ġsides": 2386,
      "ĠApr": 2387,
      "arly": 2388,
      "iginal": 2389,
      "ĠRC": 2390,
      "ĠÎ·": 2391,
      "Ġthird": 2392,
      "ilver": 2393,
      "ĠTheir": 2394,
      "Ġground": 2395,
      "Ġattract": 2396,
      "Ġalthough": 2397,
      "Ġmaint": 2398,
      "ake": 2399,
      "Ġloads": 2400,
      "Ġmeasuring": 2401,
      "ĠGu": 2402,
      "Ġbecome": 2403,
      "Ġhenry": 2404,
      "Ġdecrease": 2405,
      "ĠCapacitance": 2406,
      "Ġuseful": 2407,
      "Ġlimit": 2408,
      "Ġsusceptance": 2409,
      "Ġcorrect": 2410,
      "umption": 2411,
      "Ġfigure": 2412,
      "ĠApril": 2413,
      "84": 2414,
      "Bombay": 2415,
      "to": 2416,
      "Ġturn": 2417,
      "Ġtri": 2418,
      "reak": 2419,
      "Ġser": 2420,
      "Ġwaves": 2421,
      "ĠImpedance": 2422,
      "Ġlower": 2423,
      "charged": 2424,
      "otent": 2425,
      "ĠHe": 2426,
      "Ġwithin": 2427,
      "Ġstation": 2428,
      "ÏĢr": 2429,
      "Ġzinc": 2430,
      "Ġadded": 2431,
      "Ġrelations": 2432,
      "ĠJune": 2433,
      "Ġ1993": 2434,
      "Ġpermanent": 2435,
      "âİ¥=": 2436,
      "circuited": 2437,
      "Ġdouble": 2438,
      "section": 2439,
      "araday": 2440,
      "Ġarrange": 2441,
      "Ġdeveloped": 2442,
      "03": 2443,
      "bol": 2444,
      "hip": 2445,
      "kes": 2446,
      "Ġ(âĢĵ": 2447,
      "Ġfunction": 2448,
      "Ġmechan": 2449,
      "Ġ3000": 2450,
      "Ġlif": 2451,
      "Ġ107": 2452,
      "ĠBand": 2453,
      "ĠWinter": 2454,
      "âİŁ": 2455,
      "âİł": 2456,
      "Ġexper": 2457,
      "Ġexternal": 2458,
      "Ġlevel": 2459,
      "Ġseconds": 2460,
      "Î¼F": 2461,
      "Ġcompared": 2462,
      "Ġelectricity": 2463,
      "Ġthereby": 2464,
      "riction": 2465,
      "Ġrefer": 2466,
      "Ġmaterials": 2467,
      "Ġparticular": 2468,
      "comp": 2469,
      "Ġharmonics": 2470,
      "Ġoccur": 2471,
      "ĠÂ±": 2472,
      "Ġdesign": 2473,
      "ĠVAR": 2474,
      "ĠPbO": 2475,
      "Ġkept": 2476,
      "Ġcalculated": 2477,
      "Ġdiscussed": 2478,
      "Ġsymmetrical": 2479,
      "ĠAccording": 2480,
      "otentiometer": 2481,
      "230": 2482,
      "VL": 2483,
      "des": 2484,
      "over": 2485,
      "way": 2486,
      "width": 2487,
      "Ġport": 2488,
      "Ġinstead": 2489,
      "Ġangular": 2490,
      "ĠAfter": 2491,
      "Ġmar": 2492,
      "Ġreal": 2493,
      "Ġvolume": 2494,
      "ĠFaraday": 2495,
      "ĠCV": 2496,
      "Ġ5000": 2497,
      "ĠNe": 2498,
      "ially": 2499,
      "150": 2500,
      "Ġtaking": 2501,
      "Ġadmittance": 2502,
      "Ġdirections": 2503,
      "Ġsem": 2504,
      "Ġstart": 2505,
      "Ġgrav": 2506,
      "Ġbraking": 2507,
      "ribut": 2508,
      "Ġmaintain": 2509,
      "Ġtriangle": 2510,
      "ah": 2511,
      "not": 2512,
      "Ġbar": 2513,
      "lead": 2514,
      "less": 2515,
      "ĠdV": 2516,
      "ĠdÎ¸": 2517,
      "Ġ38": 2518,
      "ives": 2519,
      "ĠEach": 2520,
      "Ġ440": 2521,
      "Ġrest": 2522,
      "Ġ109": 2523,
      "ĠBridge": 2524,
      "ĠBombay": 2525,
      "Ġhand": 2526,
      "ĠWork": 2527,
      "Ġoriginal": 2528,
      "106": 2529,
      "ĠMill": 2530,
      "indle": 2531,
      "Ġsine": 2532,
      "Ġsupplies": 2533,
      "ĠKVL": 2534,
      "Ġarms": 2535,
      "amperes": 2536,
      "loy": 2537,
      ")].": 2538,
      "Ġworking": 2539,
      "ĠMeas": 2540,
      "metre": 2541,
      "Ġrectangular": 2542,
      "ĠEquivalent": 2543,
      "voltage": 2544,
      "Ġcircular": 2545,
      "Ġhydrogen": 2546,
      "Ġimportant": 2547,
      "Ġconjugate": 2548,
      "mens": 2549,
      "ustr": 2550,
      "uary": 2551,
      "valu": 2552,
      "Ġill": 2553,
      "Ġaround": 2554,
      "Ġcylind": 2555,
      "ern": 2556,
      "Ġshe": 2557,
      "Ġpul": 2558,
      "Ġvar": 2559,
      "Ġvelocity": 2560,
      "ĠTorque": 2561,
      "005": 2562,
      "Ġ44": 2563,
      "Ġ47": 2564,
      "Ġ56": 2565,
      "ĠSecond": 2566,
      "ĠBang": 2567,
      "Ġjunction": 2568,
      "ĠWattmeter": 2569,
      "Ġrating": 2570,
      "unted": 2571,
      "ĠNi": 2572,
      "ached": 2573,
      "Ġkil": 2574,
      "Ġ900": 2575,
      "ineering": 2576,
      "Ġwere": 2577,
      "Ġdeg": 2578,
      "Ġdependent": 2579,
      "Ġspindle": 2580,
      "ipro": 2581,
      "deal": 2582,
      "iemens": 2583,
      "ĠLaws": 2584,
      "Ġoperation": 2585,
      "Ġquantities": 2586,
      "Ġgrad": 2587,
      "Ġjoules": 2588,
      "Ġearlier": 2589,
      "Ġadditional": 2590,
      "ĠMaximum": 2591,
      "ĠDiffe": 2592,
      "Ġdriving": 2593,
      "ducing": 2594,
      "Ġalgebraic": 2595,
      "Ġevery": 2596,
      "ĠMillman": 2597,
      "Ġillustr": 2598,
      ");": 2599,
      "Electric": 2600,
      "hand": 2601,
      "sh": 2602,
      "well": 2603,
      "ward": 2604,
      "Ġu": 2605,
      "ises": 2606,
      "Ġsolution": 2607,
      "ition": 2608,
      "Ġpair": 2609,
      "Ġwhe": 2610,
      "ĠAct": 2611,
      "Ġdynam": 2612,
      "Ġvary": 2613,
      "ĠTH": 2614,
      "Ġemp": 2615,
      "ividual": 2616,
      "Ġnm": 2617,
      "static": 2618,
      "Ġ62": 2619,
      "duction": 2620,
      "ĠDrop": 2621,
      "Ġ).": 2622,
      "âİĿ": 2623,
      "Ġexcit": 2624,
      "Ġ115": 2625,
      "ĠForce": 2626,
      "Ġotherwise": 2627,
      "Ġsystems": 2628,
      "Ġalternator": 2629,
      "Ġ231": 2630,
      "Ġends": 2631,
      "version": 2632,
      "Ġvoltmeters": 2633,
      "Ġsubst": 2634,
      "ĠElectrom": 2635,
      "Ġinsulation": 2636,
      "Ġexplained": 2637,
      "vantages": 2638,
      "Ġdetermin": 2639,
      "Ġcontinuous": 2640,
      "ECT": 2641,
      "Ġrelationship": 2642,
      "Parallel": 2643,
      "aight": 2644,
      "lass": 2645,
      "off": 2646,
      "rad": 2647,
      "Ġest": 2648,
      "Ġton": 2649,
      "Ġten": 2650,
      "Ġtor": 2651,
      "Ġtance": 2652,
      "Ġapart": 2653,
      "Ġcle": 2654,
      "Ġclockwise": 2655,
      "Ġ02": 2656,
      "ÃĹ(": 2657,
      "Ġ49": 2658,
      "ĠTheory": 2659,
      "Ġ57": 2660,
      "ĠSp": 2661,
      "Ġrun": 2662,
      ".....": 2663,
      "action": 2664,
      "103": 2665,
      "ĠDue": 2666,
      "ĠDelta": 2667,
      "125": 2668,
      "Ġdispl": 2669,
      "Ġpercentage": 2670,
      "atively": 2671,
      "Ġinteg": 2672,
      "Ġrelation": 2673,
      "Ġobvious": 2674,
      "Ġeng": 2675,
      "Ġexpressed": 2676,
      "chemical": 2677,
      "Ġtransformers": 2678,
      "ized": 2679,
      "Ġuniformly": 2680,
      "ified": 2681,
      "Ġgroup": 2682,
      "Ġsemi": 2683,
      "ian": 2684,
      "me": 2685,
      "wave": 2686,
      "Î´": 2687,
      "Ġtion": 2688,
      "Ġaction": 2689,
      "erive": 2690,
      "Ġbreak": 2691,
      "Ġfil": 2692,
      "Ġwide": 2693,
      "ĠAD": 2694,
      "Ġdv": 2695,
      "Ġdat": 2696,
      "row": 2697,
      "Ġ01": 2698,
      "ĠRO": 2699,
      "Ġthus": 2700,
      "Ġresp": 2701,
      "Ġ55": 2702,
      "ected": 2703,
      "Ġresistive": 2704,
      "ĠMore": 2705,
      "ĠOC": 2706,
      "Ġexact": 2707,
      "122": 2708,
      "Ġconsumption": 2709,
      "ablis": 2710,
      "Ġlinked": 2711,
      "Ġindividual": 2712,
      "Ġâİ¥âİ¦": 2713,
      "ched": 2714,
      "ĠAllah": 2715,
      "Ġcentral": 2716,
      "ification": 2717,
      "Ġstraight": 2718,
      "Ġarranged": 2719,
      "Ġpolarity": 2720,
      "ĠAssuming": 2721,
      "Ġpractice": 2722,
      "Ġsimplif": 2723,
      "Ġeasily": 2724,
      "ĠNeglect": 2725,
      "Ġelectromagnet": 2726,
      "ĠElectron": 2727,
      "Ġarrangement": 2728,
      "ĠAllahabad": 2729,
      "An": 2730,
      "Series": 2731,
      "Wh": 2732,
      "divider": 2733,
      "rr": 2734,
      "side": 2735,
      "Ġ>": 2736,
      "Ġions": 2737,
      "Ġtub": 2738,
      "Ġaffect": 2739,
      "Ġsim": 2740,
      "onance": 2741,
      "onential": 2742,
      "alore": 2743,
      "Ġinner": 2744,
      "orage": 2745,
      "Ġbod": 2746,
      "Ġfr": 2747,
      "Ġfurther": 2748,
      "Ġwires": 2749,
      "Ġmill": 2750,
      "ĠTo": 2751,
      "ĠFirst": 2752,
      "Ġresis": 2753,
      "ilds": 2754,
      "ĠBran": 2755,
      "ape": 2756,
      "Â°âĪĴ": 2757,
      "oses": 2758,
      "Ġstated": 2759,
      "ÂºC": 2760,
      "Ġexist": 2761,
      "Ġitself": 2762,
      "250": 2763,
      "Ġmagnets": 2764,
      "Ġplane": 2765,
      "Ġlinear": 2766,
      "Ġacting": 2767,
      "Ġnumer": 2768,
      "ĠComplex": 2769,
      "Ġtypes": 2770,
      "Ġerrors": 2771,
      "ĠRYB": 2772,
      "Ġabsolute": 2773,
      "Ġapplications": 2774,
      "Ġimm": 2775,
      "Ġrectifier": 2776,
      "approx": 2777,
      "Ġcalibrated": 2778,
      "ĠBangalore": 2779,
      "ĠMoreover": 2780,
      "Ġbody": 2781,
      "240": 2782,
      "61": 2783,
      "69": 2784,
      "City": 2785,
      "den": 2786,
      "draw": 2787,
      "ll": 2788,
      "na": 2789,
      "ning": 2790,
      "ĠÂ°": 2791,
      "Ġess": 2792,
      "Ġach": 2793,
      "Ġaway": 2794,
      "Ġcause": 2795,
      "Ġcases": 2796,
      "erted": 2797,
      "ercur": 2798,
      "Ġscal": 2799,
      "Ġsilver": 2800,
      "athod": 2801,
      "Ġpotentiometer": 2802,
      "Ġbul": 2803,
      "ĠAN": 2804,
      "ĠdC": 2805,
      "Ġdet": 2806,
      "art": 2807,
      "ĠFundamental": 2808,
      "001": 2809,
      "Ġ39": 2810,
      "ently": 2811,
      "ĠErr": 2812,
      "ĠSC": 2813,
      "ĠSO": 2814,
      "Ġconc": 2815,
      "ĠWave": 2816,
      "Ġrated": 2817,
      "ĠHysteresis": 2818,
      "imate": 2819,
      "Ġ1200": 2820,
      "Ġacid": 2821,
      "Ġmakes": 2822,
      "Ġweber": 2823,
      "Ġprocess": 2824,
      "ĠOn": 2825,
      "Ġdepend": 2826,
      "Ġ254": 2827,
      "Ġfluxes": 2828,
      "oulomb": 2829,
      "Ġnotation": 2830,
      "ĠÏīL": 2831,
      "186": 2832,
      "Ġrelay": 2833,
      "Ġvariations": 2834,
      "Ġpasses": 2835,
      "pendicular": 2836,
      "Ġtrue": 2837,
      "axis": 2838,
      "Ġcontact": 2839,
      "ĠLoop": 2840,
      "Ġseparated": 2841,
      "Ġkeep": 2842,
      "ĠAssume": 2843,
      "Ġagainst": 2844,
      "ĠGuilds": 2845,
      "Ġmarked": 2846,
      "Ġgravity": 2847,
      "Ġachie": 2848,
      "ercury": 2849,
      "220": 2850,
      "Capacit": 2851,
      "ER": 2852,
      "GAT": 2853,
      "litude": 2854,
      "mber": 2855,
      "ood": 2856,
      "the": 2857,
      "uj": 2858,
      "wh": 2859,
      "Ġtw": 2860,
      "Ġcaus": 2861,
      "ison": 2862,
      "Ġsulph": 2863,
      "ĠdH": 2864,
      "Ġrec": 2865,
      "ĠÎ£": 2866,
      "ĠCE": 2867,
      "Ġ42": 2868,
      "Ġ102": 2869,
      "ĠLI": 2870,
      "Ġideal": 2871,
      "ula": 2872,
      "Â°+": 2873,
      "ĠPerm": 2874,
      "iding": 2875,
      "idered": 2876,
      "Ġwithout": 2877,
      "ants": 2878,
      "ĠDerive": 2879,
      "Ġallow": 2880,
      "Ġalone": 2881,
      "âİľ": 2882,
      "Ġexcept": 2883,
      "Ġconsidered": 2884,
      "ĠGener": 2885,
      "Ġcompens": 2886,
      "ultaneous": 2887,
      "Ġconductance": 2888,
      "ĠConstant": 2889,
      "Ġnodal": 2890,
      "ĠResist": 2891,
      "Ġstep": 2892,
      "Ġsolved": 2893,
      "arning": 2894,
      "ĠElectro": 2895,
      "Ġfalls": 2896,
      "Ġlamps": 2897,
      "Ġcompletely": 2898,
      "ĠMaxwell": 2899,
      "Ġhowever": 2900,
      "ears": 2901,
      "Ġinfinite": 2902,
      "ĠDifferent": 2903,
      "Ġessential": 2904,
      "GATE": 2905,
      "219": 2906,
      "=âĪĴ": 2907,
      "Guj": 2908,
      "ai": 2909,
      "bon": 2910,
      "dL": 2911,
      "down": 2912,
      "ket": 2913,
      "lim": 2914,
      "rat": 2915,
      "rip": 2916,
      "uel": 2917,
      "Ġq": 2918,
      "Ġ110": 2919,
      "erist": 2920,
      "Ġsay": 2921,
      "onent": 2922,
      "ontal": 2923,
      "Ġ00": 2924,
      "ĠCu": 2925,
      "cus": 2926,
      "Ġnected": 2927,
      "ĠBD": 2928,
      "Ġhor": 2929,
      "ĠWr": 2930,
      "Ġordin": 2931,
      "osing": 2932,
      "ante": 2933,
      "Ġlocus": 2934,
      "Ġ)+": 2935,
      "Ġproble": 2936,
      "Ġusual": 2937,
      "Ġdeposit": 2938,
      "Ġperpendicular": 2939,
      "169": 2940,
      "Ġintro": 2941,
      "Ġouter": 2942,
      "Ġmoves": 2943,
      "connection": 2944,
      "Ġquest": 2945,
      "ĠConnection": 2946,
      "ĠtanÏĨ": 2947,
      "Ġ3600": 2948,
      "âĪĴâĪĴâĪĴâĪĴâĪĴ": 2949,
      "Ġdischarging": 2950,
      "lication": 2951,
      "Ġindicated": 2952,
      "Ġcould": 2953,
      "Ġmagnetisation": 2954,
      "Ġdivided": 2955,
      "ĠCharging": 2956,
      "ĠDef": 2957,
      "ibel": 2958,
      "Ġinfinity": 2959,
      "ĠShow": 2960,
      "ĠCells": 2961,
      "versely": 2962,
      "ĠSystem": 2963,
      "Ġmechanical": 2964,
      "Ġsheet": 2965,
      "Ġestablis": 2966,
      "Ġdata": 2967,
      "ĠBranch": 2968,
      "athode": 2969,
      "Gujrat": 2970,
      "600": 2971,
      "ele": 2972,
      "hi": 2973,
      "kages": 2974,
      "line": 2975,
      "mf": 2976,
      "ok": 2977,
      "plate": 2978,
      "point": 2979,
      "ron": 2980,
      "ten": 2981,
      "tan": 2982,
      "wt": 2983,
      "with": 2984,
      "Ġut": 2985,
      "Ġenc": 2986,
      "Ġ=(": 2987,
      "Ġ(=": 2988,
      "ĠpF": 2989,
      "Ġfriction": 2990,
      "ĠAM": 2991,
      "Ġren": 2992,
      "Ġreduce": 2993,
      "Ġ360": 2994,
      "asor": 2995,
      "ĠRB": 2996,
      "ĠCur": 2997,
      "Ġthough": 2998,
      "ĠSc": 2999,
      "Ġjust": 3000,
      "Ġ65": 3001,
      "unter": 3002,
      "ime": 3003,
      "acterist": 3004,
      "ĠMesh": 3005,
      "Ġ84": 3006,
      "Ġaccording": 3007,
      "Ġstorage": 3008,
      "ĠsinÏĨ": 3009,
      "Ġmaking": 3010,
      "Ġproce": 3011,
      "odal": 3012,
      "âĢĻ.": 3013,
      "Ġformed": 3014,
      "Ġactually": 3015,
      "Ġstarting": 3016,
      "Ġtransient": 3017,
      "Ġvaried": 3018,
      "Ġoverall": 3019,
      "ĠResonant": 3020,
      "ĠCoil": 3021,
      "Ġmethods": 3022,
      "Ġunits": 3023,
      "Ġincreasing": 3024,
      "Ġwindings": 3025,
      "izontal": 3026,
      "Ġcontains": 3027,
      "Ġcontaining": 3028,
      "Ġextre": 3029,
      "Ġbandwidth": 3030,
      ")+(": 3031,
      "ember": 3032,
      "ĠPlante": 3033,
      "Ġchoke": 3034,
      "Ġmovement": 3035,
      "ĠFrequency": 3036,
      "Ġpropert": 3037,
      "Ġmotion": 3038,
      "Ġportion": 3039,
      "5000": 3040,
      "800": 3041,
      "MS": 3042,
      "TS": 3043,
      "bs": 3044,
      "di": 3045,
      "hic": 3046,
      "now": 3047,
      "ygen": 3048,
      "Â±": 3049,
      "Ġow": 3050,
      "Ġinversely": 3051,
      "ordin": 3052,
      "Ġanode": 3053,
      "Ġface": 3054,
      "ĠAgain": 3055,
      "ĠTyp": 3056,
      "owards": 3057,
      "ĠâĪĴ(": 3058,
      "ques": 3059,
      "utom": 3060,
      "ĠBO": 3061,
      "charge": 3062,
      "Ġresistivity": 3063,
      "Ġgrid": 3064,
      "umb": 3065,
      "Ġ83": 3066,
      "ĠDC": 3067,
      "Ġ125": 3068,
      "Ġaccur": 3069,
      "Ġequip": 3070,
      "ecause": 3071,
      "Ġ)=": 3072,
      "Ġcannot": 3073,
      "Ġapprox": 3074,
      "ĠÎ¼C": 3075,
      "Ġamplitude": 3076,
      "ĠCurrents": 3077,
      "Ġinclu": 3078,
      "Ġvariation": 3079,
      "Ġupto": 3080,
      "Ġclose": 3081,
      "Ġinside": 3082,
      "Ġtransformation": 3083,
      "Ġindicates": 3084,
      "Ġgood": 3085,
      "Ġfilters": 3086,
      "âĢ²âĢ²âĢ²": 3087,
      "Ġcoulombs": 3088,
      "Ġapplication": 3089,
      "Ġprovide": 3090,
      "ĠBattery": 3091,
      "ĠPhasor": 3092,
      "Ġdistribut": 3093,
      "Ġraised": 3094,
      "Ġsection": 3095,
      "Ġexperience": 3096,
      "Ġreferred": 3097,
      "Ġvaries": 3098,
      "Ġtonne": 3099,
      "Ġexactly": 3100,
      "Anna": 3101,
      "Ġsimultaneous": 3102,
      "Capacitance": 3103,
      "Ġquestion": 3104,
      "115": 3105,
      "Ae": 3106,
      "Bas": 3107,
      "VA": 3108,
      "dent": 3109,
      "ebr": 3110,
      "ique": 3111,
      "Ġ]": 3112,
      "Ġtechn": 3113,
      "Ġtowards": 3114,
      "Ġcr": 3115,
      "Ġcathode": 3116,
      "Ġsc": 3117,
      "Ġinv": 3118,
      "lecu": 3119,
      "Ġment": 3120,
      "Ġmod": 3121,
      "ĠTest": 3122,
      "ĠTake": 3123,
      "ĠVY": 3124,
      "iven": 3125,
      "ĠRR": 3126,
      "Ġ+...": 3127,
      "Ġlies": 3128,
      "Ġcounter": 3129,
      "ĠEd": 3130,
      "ĠSe": 3131,
      "stop": 3132,
      "Ġshif": 3133,
      "ĠNode": 3134,
      "apid": 3135,
      "ĠÏĪ": 3136,
      "Ġatom": 3137,
      "ĠMat": 3138,
      "ĠDA": 3139,
      "ĠDec": 3140,
      "ĠInt": 3141,
      "Ġ91": 3142,
      "Ġ1500": 3143,
      "Ġ133": 3144,
      "sequ": 3145,
      "Ġcompar": 3146,
      "Ġhead": 3147,
      "Ġmounted": 3148,
      "Ġmolecu": 3149,
      "ĠConduct": 3150,
      "Ġunderst": 3151,
      "Ġupon": 3152,
      "ĠVoltmeter": 3153,
      "Ġexpressions": 3154,
      "ĠObject": 3155,
      "ĠState": 3156,
      "Ġdischarged": 3157,
      "Ġconnecting": 3158,
      "Ġassuming": 3159,
      "ringing": 3160,
      "Ġindicate": 3161,
      "Ġsignal": 3162,
      "Ġdivider": 3163,
      "ĠCharge": 3164,
      "âĢ²âĢ²âĢ²âĢ²âĢ²": 3165,
      "Ġcontrolling": 3166,
      "Ġgenerally": 3167,
      "Ġearth": 3168,
      "Ġsymbol": 3169,
      "Ġprovided": 3170,
      "forms": 3171,
      "ĠPlates": 3172,
      "Ġentire": 3173,
      "Ġgradient": 3174,
      "Ġemploy": 3175,
      "Ġtorques": 3176,
      "Ġscales": 3177,
      "ĠFundamentals": 3178,
      "ĠWrite": 3179,
      "Ġutil": 3180,
      "ebruary": 3181,
      "+(": 3182,
      "acu": 3183,
      "aure": 3184,
      "aft": 3185,
      "ied": 3186,
      "kal": 3187,
      "lin": 3188,
      "qd": 3189,
      "sw": 3190,
      "val": 3191,
      "where": 3192,
      "xide": 3193,
      "Ã¤": 3194,
      "âĨĴ": 3195,
      "rea": 3196,
      "ish": 3197,
      "erv": 3198,
      "Ġ210": 3199,
      "onse": 3200,
      "its": 3201,
      "atur": 3202,
      "atics": 3203,
      "Ġways": 3204,
      "eds": 3205,
      "ĠAm": 3206,
      "Ġmom": 3207,
      "ĠdI": 3208,
      "Ġden": 3209,
      "Ġreac": 3210,
      "ication": 3211,
      "004": 3212,
      "Ġthin": 3213,
      "ĠSolving": 3214,
      "Ġconversion": 3215,
      "Ġglass": 3216,
      "Ġrapid": 3217,
      "ĠPut": 3218,
      "acing": 3219,
      "Ġsufficient": 3220,
      "Ġkm": 3221,
      "actance": 3222,
      "romagnetic": 3223,
      "104": 3224,
      "ĠDiv": 3225,
      "Ġ)/": 3226,
      "resistance": 3227,
      "160": 3228,
      "ĠÏīC": 3229,
      "acement": 3230,
      "193": 3231,
      "Ġformula": 3232,
      "Ġexponential": 3233,
      "ĠEngineering": 3234,
      "ielectric": 3235,
      "Ġlosses": 3236,
      "Ġsubject": 3237,
      "Ġdesc": 3238,
      "Ġexten": 3239,
      "Ġproduction": 3240,
      "Ġoffers": 3241,
      "Ġvehic": 3242,
      "Ġlighting": 3243,
      "Ġputting": 3244,
      "ĠIndore": 3245,
      "ĠExplain": 3246,
      "Ġillustrated": 3247,
      "Ġvarying": 3248,
      "ĠElectromagnetism": 3249,
      "Ġhorizontal": 3250,
      "Basic": 3251,
      "'s": 3252,
      ".-": 3253,
      "440": 3254,
      "IE": 3255,
      "VE": 3256,
      "dx": 3257,
      "ew": 3258,
      "kWh": 3259,
      "mis": 3260,
      "og": 3261,
      "tic": 3262,
      "ud": 3263,
      "ĭħ": 3264,
      "Ġtre": 3265,
      "hem": 3266,
      "induced": 3267,
      "reactive": 3268,
      "Ġoil": 3269,
      "onents": 3270,
      "Ġanal": 3271,
      "Ġdim": 3272,
      "ĠVari": 3273,
      "ĠFaure": 3274,
      "Ġcost": 3275,
      "ĠEst": 3276,
      "Ġ46": 3277,
      "ĠSte": 3278,
      "umber": 3279,
      "dure": 3280,
      "Ġforms": 3281,
      "Ġ61": 3282,
      "Ġrises": 3283,
      "ively": 3284,
      "ĠNodal": 3285,
      "Ġdiff": 3286,
      "ĠMagnetis": 3287,
      "Ġ81": 3288,
      "ĠDielectric": 3289,
      "ĠâĢľ": 3290,
      "Ġproducing": 3291,
      "âİ¡": 3292,
      "ÏĢf": 3293,
      "Ġnearly": 3294,
      "Ġ141": 3295,
      "ĠQu": 3296,
      "ĠÎ¼H": 3297,
      "Ġ2500": 3298,
      "Ġconstants": 3299,
      "Ġadding": 3300,
      "Ġfields": 3301,
      "Ġgenerated": 3302,
      "ĠâİŁâĪĴ": 3303,
      "Ġsurround": 3304,
      "armonics": 3305,
      "Ġindicating": 3306,
      "Ġgoing": 3307,
      "dynam": 3308,
      "jective": 3309,
      "Ġelectrostatic": 3310,
      "Ġelectronic": 3311,
      "ĠLearning": 3312,
      "Ġchanged": 3313,
      "ĠTherefore": 3314,
      "Ġoxygen": 3315,
      "ĠABCD": 3316,
      "scrip": 3317,
      "Ġmicro": 3318,
      "Ġparticularly": 3319,
      "iprocal": 3320,
      "Ġconcern": 3321,
      "Ġdeposited": 3322,
      "Ġintroduced": 3323,
      "ĠObjectives": 3324,
      "acuum": 3325,
      "Ġmoment": 3326,
      "dynamic": 3327,
      "%.": 3328,
      "300": 3329,
      "IVE": 3330,
      "Magnetism": 3331,
      "Ob": 3332,
      "SO": 3333,
      "rm": 3334,
      "tar": 3335,
      "uly": 3336,
      "ze": 3337,
      "Ġage": 3338,
      "Ġsec": 3339,
      "anes": 3340,
      "Ġansw": 3341,
      "Ġfeed": 3342,
      "Ġfringing": 3343,
      "ĠArea": 3344,
      "Ġmercury": 3345,
      "Ġreqd": 3346,
      "olated": 3347,
      "olved": 3348,
      "arat": 3349,
      "ett": 3350,
      "ĠTemperature": 3351,
      "Ġevalu": 3352,
      "ĠRMS": 3353,
      "ĠCB": 3354,
      "Ġlay": 3355,
      "Ġlying": 3356,
      "istic": 3357,
      "Ġconvent": 3358,
      "utes": 3359,
      "Ġjour": 3360,
      "lecting": 3361,
      "Ġident": 3362,
      "ivered": 3363,
      "elhi": 3364,
      "Ġshape": 3365,
      "ĠNet": 3366,
      "ĠPer": 3367,
      "ĠÏĥ": 3368,
      "Ġsud": 3369,
      "Ġsuperposition": 3370,
      "ĠMultip": 3371,
      "Ġ85": 3372,
      "Ġ86": 3373,
      "Ġ88": 3374,
      "ĠDelhi": 3375,
      "amin": 3376,
      "Ġ96": 3377,
      "Ġgiving": 3378,
      "Ġapply": 3379,
      "ÏīÏī": 3380,
      "Ġheater": 3381,
      "Ġheav": 3382,
      "Ġconducting": 3383,
      "ateral": 3384,
      "dition": 3385,
      "Ġmeasures": 3386,
      "Ġmeasurement": 3387,
      "Ġrod": 3388,
      "iece": 3389,
      "231": 3390,
      "cosÏĨ": 3391,
      "ĠVoltages": 3392,
      "Ġvertical": 3393,
      "........": 3394,
      "ney": 3395,
      "ĠReactive": 3396,
      "ĠApply": 3397,
      "Ġremaining": 3398,
      "ĠElectricity": 3399,
      "Ġoffered": 3400,
      "ĠReluctance": 3401,
      "ĠTransform": 3402,
      "vantage": 3403,
      "ĠAmpere": 3404,
      "ĠÎ¼Î¼Î¼Î¼Î¼F": 3405,
      "Ġquadrature": 3406,
      "Ġbasic": 3407,
      "Ġdelivered": 3408,
      "ĠAlternating": 3409,
      "ĠHeat": 3410,
      "âİ¥=âİ¢": 3411,
      "Ġoccurs": 3412,
      "Ġdegree": 3413,
      "ĠActive": 3414,
      "drawn": 3415,
      "limin": 3416,
      "Ġencl": 3417,
      "Ġrent": 3418,
      "ĠTests": 3419,
      "Ġemployed": 3420,
      "ĠAmmeter": 3421,
      "Objective": 3422,
      "Ġjourney": 3423,
      "Ġidentical": 3424,
      "Ġheavy": 3425,
      "Co": 3426,
      "IC": 3427,
      "JECT": 3428,
      "ier": 3429,
      "most": 3430,
      "oving": 3431,
      "sive": 3432,
      "īħ": 3433,
      "ready": 3434,
      "ert": 3435,
      "atically": 3436,
      "Ġpiece": 3437,
      "cell": 3438,
      "Ġfarad": 3439,
      "Ġmho": 3440,
      "ĠVolume": 3441,
      "ĠFurther": 3442,
      "ĠRL": 3443,
      "ĠÎ´": 3444,
      "ĠCor": 3445,
      "Ġ41": 3446,
      "Ġ4000": 3447,
      "Ġ1010": 3448,
      "Ġ59": 3449,
      "Ġconf": 3450,
      "Ġconstruction": 3451,
      "ĠBA": 3452,
      "Ġhot": 3453,
      "statics": 3454,
      "lected": 3455,
      "Ġ68": 3456,
      "imes": 3457,
      "Ġwhy": 3458,
      "ĠMagnet": 3459,
      "ĠMoving": 3460,
      "ĠDuring": 3461,
      "Ġalready": 3462,
      "Ġproved": 3463,
      "ĠOr": 3464,
      "Ġdevice": 3465,
      "Ġcharacterist": 3466,
      "ĠGr": 3467,
      "oundary": 3468,
      "Ġequally": 3469,
      "allistic": 3470,
      "Ġdefin": 3471,
      "control": 3472,
      "Ġmeasurements": 3473,
      "346": 3474,
      "Ġohmic": 3475,
      "Ġammeters": 3476,
      "Ġeffects": 3477,
      "ĠMean": 3478,
      "Ġcurves": 3479,
      "cessive": 3480,
      ")=âĪĴ": 3481,
      "ĠRem": 3482,
      "ize": 3483,
      "izing": 3484,
      "Ġminutes": 3485,
      "entally": 3486,
      "Ġreplace": 3487,
      "ĠEquations": 3488,
      "Ġelectrode": 3489,
      "ĠSubtract": 3490,
      "ĠCompute": 3491,
      "Ġcutoff": 3492,
      "Ġprevent": 3493,
      "ĠRelative": 3494,
      "Ġpurposes": 3495,
      "Ġdetermined": 3496,
      "Ġbased": 3497,
      "ĠFrequencies": 3498,
      "ĠOBJECT": 3499,
      "ESE": 3500,
      "Ġneeded": 3501,
      "Ġservice": 3502,
      "Ġupper": 3503,
      "Ġexciting": 3504,
      "Ġdeterminant": 3505,
      "Ġclear": 3506,
      "Ġbulb": 3507,
      "Ġtwice": 3508,
      "Ġcauses": 3509,
      "ketch": 3510,
      "Ġtechnique": 3511,
      "ĠPutting": 3512,
      "Ġconcerned": 3513,
      "Ġsudden": 3514,
      "ĠOBJECTIVE": 3515,
      ".*": 3516,
      "110": 3517,
      "625": 3518,
      "732": 3519,
      "In": 3520,
      "Network": 3521,
      "Power": 3522,
      "com": 3523,
      "cored": 3524,
      "coulomb": 3525,
      "ef": 3526,
      "ien": 3527,
      "Ã·": 3528,
      "Ġtemp": 3529,
      "Ġoa": 3530,
      "Ġsq": 3531,
      "Ġoften": 3532,
      "ĠAir": 3533,
      "Ġds": 3534,
      "Ġreas": 3535,
      "Ġvibr": 3536,
      "Ġvacuum": 3537,
      "old": 3538,
      "ety": 3539,
      "ived": 3540,
      "Ġlatter": 3541,
      "Ġcoe": 3542,
      "ilateral": 3543,
      "ĠSiemens": 3544,
      "âĪ´": 3545,
      "Ġconven": 3546,
      "ĠBecause": 3547,
      "Ġhp": 3548,
      "Ġgram": 3549,
      "ĠWt": 3550,
      "otive": 3551,
      "aper": 3552,
      "ĠPr": 3553,
      "ĠPlate": 3554,
      "ational": 3555,
      "Ġknow": 3556,
      "102": 3557,
      "105": 3558,
      "ĠDE": 3559,
      "Ġ72": 3560,
      "Ġ159": 3561,
      "Ġsupport": 3562,
      "like": 3563,
      "202": 3564,
      "ĠThus": 3565,
      "167": 3566,
      "ĠGiven": 3567,
      "Ġrepul": 3568,
      "Ġcome": 3569,
      "Ġoutside": 3570,
      "ĠJan": 3571,
      "Ġ1990": 3572,
      "ĠResonance": 3573,
      "parallel": 3574,
      "ĠVolts": 3575,
      "ensions": 3576,
      "ĠStrength": 3577,
      "Ġassume": 3578,
      "Ġreversal": 3579,
      "Ġsolving": 3580,
      "ĠReactance": 3581,
      "Ġopposition": 3582,
      "Ġliber": 3583,
      "ails": 3584,
      "Ġseparate": 3585,
      "Ġcorresponds": 3586,
      "Ġpurely": 3587,
      "ubber": 3588,
      "Ġspecim": 3589,
      "inciples": 3590,
      "Ġcheck": 3591,
      "ÎĶÎĶ": 3592,
      "Ġnormally": 3593,
      "adras": 3594,
      "Ġpossess": 3595,
      "ĠAdmittance": 3596,
      "Ġsimply": 3597,
      "Ġattached": 3598,
      "ometimes": 3599,
      "Electrochemical": 3600,
      "Ġattraction": 3601,
      "component": 3602,
      "Ġsubstances": 3603,
      "Ġdisplacement": 3604,
      "Ġresponse": 3605,
      "ĠElectronics": 3606,
      "Ġmilli": 3607,
      "Ġreciprocal": 3608,
      "Ġproblem": 3609,
      "Ġprocedure": 3610,
      "Ġextreme": 3611,
      "Ġown": 3612,
      "umbai": 3613,
      "Ġequipment": 3614,
      "Ġsubjected": 3615,
      "mission": 3616,
      "Ġreason": 3617,
      "./": 3618,
      "LI": 3619,
      "Pr": 3620,
      "car": 3621,
      "circle": 3622,
      "equ": 3623,
      "ob": 3624,
      "sec": 3625,
      "uit": 3626,
      "Î½": 3627,
      "Ġautom": 3628,
      "rees": 3629,
      "Ġcircle": 3630,
      "Ġsen": 3631,
      "enu": 3632,
      "anges": 3633,
      "lease": 3634,
      "Ġisolated": 3635,
      "ĠAE": 3636,
      "Ġmg": 3637,
      "Ġmind": 3638,
      "ĠdL": 3639,
      "Ġder": 3640,
      "Ġrece": 3641,
      "ark": 3642,
      "Ġ03": 3643,
      "ĠTr": 3644,
      "ĠTES": 3645,
      "Ġelimin": 3646,
      "ĠCalcu": 3647,
      "ĠComb": 3648,
      "ĠSi": 3649,
      "Ġnature": 3650,
      "ĠiR": 3651,
      "âĢĿ": 3652,
      "Ġrms": 3653,
      "Â°/": 3654,
      "Ġkett": 3655,
      "Ġ82": 3656,
      "Ġalkal": 3657,
      "Ġstress": 3658,
      "ĠInst": 3659,
      "ĠIncid": 3660,
      "Ġmach": 3661,
      "Ġ79": 3662,
      "ĠOO": 3663,
      "ĠOver": 3664,
      "ĠYO": 3665,
      "Ġparameter": 3666,
      "rought": 3667,
      "osite": 3668,
      "Ġmeant": 3669,
      "ĠTechnical": 3670,
      "Ġplot": 3671,
      "Ġcomes": 3672,
      "Ġformer": 3673,
      "Ġrequire": 3674,
      "173": 3675,
      "ickle": 3676,
      "Ġyo": 3677,
      "Ġdraws": 3678,
      "âİ¥âİ¢": 3679,
      "ÎµÎµ": 3680,
      "ension": 3681,
      "Ġrotates": 3682,
      "Ġrepresenting": 3683,
      "Ġ**": 3684,
      "ĠRep": 3685,
      "Ġdivision": 3686,
      "ĠChar": 3687,
      "Ġelectrodes": 3688,
      "ĠSupply": 3689,
      "Ġchanging": 3690,
      "centr": 3691,
      "Ġinsulator": 3692,
      "Ġconvert": 3693,
      "Ġapplicable": 3694,
      "Ġslab": 3695,
      "Ġimag": 3696,
      "Ġrectified": 3697,
      "Ġnewtons": 3698,
      "Ġmaintained": 3699,
      "Ġwhether": 3700,
      "Ġintegral": 3701,
      "Ġimmers": 3702,
      "ĠError": 3703,
      "Ġapproxim": 3704,
      "sequently": 3705,
      "Ġunderstood": 3706,
      "linkages": 3707,
      "Ġreaches": 3708,
      "ĠEstimate": 3709,
      "ĠQuant": 3710,
      "script": 3711,
      "controlled": 3712,
      "Ġconvenient": 3713,
      "Ġspecimen": 3714,
      "Ġkettle": 3715,
      ")ÃĹ": 3716,
      "432": 3717,
      "632": 3718,
      "Mumbai": 3719,
      "Pass": 3720,
      "Res": 3721,
      "Star": 3722,
      "Volt": 3723,
      "dl": 3724,
      "ious": 3725,
      "tes": 3726,
      "yn": 3727,
      "Ġhere": 3728,
      "rely": 3729,
      "Ġcre": 3730,
      "Ġosc": 3731,
      "isions": 3732,
      "itivity": 3733,
      "Ġâīħ": 3734,
      "Ġpas": 3735,
      "Ġinduce": 3736,
      "Ġfuel": 3737,
      "Ġdl": 3738,
      "Ġreach": 3739,
      "Ġrecor": 3740,
      "Ġreeds": 3741,
      "Ġvane": 3742,
      "Ġvia": 3743,
      "ĠTaking": 3744,
      "ivities": 3745,
      "ĠRN": 3746,
      "ĠRect": 3747,
      "ĠChe": 3748,
      "ĠCase": 3749,
      "Ġ54": 3750,
      "Ġ58": 3751,
      "ĠnI": 3752,
      "Ġconcentr": 3753,
      "Ġhal": 3754,
      "chan": 3755,
      "Ġâİ¯": 3756,
      "Ġrubber": 3757,
      "ĠHarmonics": 3758,
      "ulated": 3759,
      "ĠNÎ¦": 3760,
      "ĠNumber": 3761,
      "apter": 3762,
      "ĠPoint": 3763,
      "Ġdiffic": 3764,
      "Ġsuc": 3765,
      "ĠMach": 3766,
      "ĠDivider": 3767,
      "Ġalmost": 3768,
      "ĠInduced": 3769,
      "ĠInitial": 3770,
      "ured": 3771,
      "Ġflat": 3772,
      "Ġ73": 3773,
      "Ġ76": 3774,
      "ĠUnder": 3775,
      "ĠUnbalanced": 3776,
      "Ġprot": 3777,
      "ĠOE": 3778,
      "ĠOV": 3779,
      "ĠOs": 3780,
      "ĠOther": 3781,
      "Ġthroughout": 3782,
      "ĠâĪłâĢĵ": 3783,
      "Ġ111": 3784,
      "Ġappro": 3785,
      "Ġmerely": 3786,
      "Ġfactors": 3787,
      "180": 3788,
      "Ġgets": 3789,
      "Ġtherefore": 3790,
      "ressed": 3791,
      "ried": 3792,
      "Î©Î©Î©Î©Î©": 3793,
      "upling": 3794,
      "ĠControl": 3795,
      "loys": 3796,
      "Ġdiagrams": 3797,
      "Ġresulting": 3798,
      "Ġcarbon": 3799,
      "333": 3800,
      "Ġradial": 3801,
      "rying": 3802,
      "ĠCoefficient": 3803,
      "Ġcombinations": 3804,
      "Ġinserted": 3805,
      "Ġreversals": 3806,
      "Ġcycles": 3807,
      "Ġdivides": 3808,
      "ĠEquating": 3809,
      "Ġseparation": 3810,
      "Ġswitching": 3811,
      "Ġaddition": 3812,
      "Ġadditive": 3813,
      "Ġdecreased": 3814,
      "Ġslide": 3815,
      "Ġpractical": 3816,
      "Ġpractically": 3817,
      "ĠTransfer": 3818,
      "ĠDiagram": 3819,
      "ĠVectors": 3820,
      "Ġquadrant": 3821,
      "Ġattenu": 3822,
      "Ġstationary": 3823,
      "Ġdesigned": 3824,
      "ĠVARs": 3825,
      "ĠWorking": 3826,
      "Ġcylinder": 3827,
      "ĠSecondary": 3828,
      "Ġtube": 3829,
      "Ġexists": 3830,
      "Ġachieved": 3831,
      "which": 3832,
      "Ġdistribution": 3833,
      "Ġsurrounding": 3834,
      "Ġenclosed": 3835,
      "Ġsuddenly": 3836,
      "ĠTESTS": 3837,
      "ĠRepresent": 3838,
      "Ġdifficult": 3839,
      "09": 3840,
      "Magnetic": 3841,
      "Pune": 3842,
      "WER": 3843,
      "da": 3844,
      "ior": 3845,
      "la": 3846,
      "mar": 3847,
      "magnet": 3848,
      "mium": 3849,
      "magnetic": 3850,
      "rup": 3851,
      "son": 3852,
      "Ġaa": 3853,
      "Ġtherm": 3854,
      "Ġcir": 3855,
      "Ġcap": 3856,
      "Ġpres": 3857,
      "orous": 3858,
      "Ġbase": 3859,
      "Ġfew": 3860,
      "Ġmes": 3861,
      "ings": 3862,
      "arch": 3863,
      "arily": 3864,
      "ioned": 3865,
      "Ġ318": 3866,
      "istor": 3867,
      "Ġbeg": 3868,
      "ĠSo": 3869,
      "ĠBN": 3870,
      "ĠBa": 3871,
      "ĠLength": 3872,
      "aded": 3873,
      "admium": 3874,
      "Ġ64": 3875,
      "ĠHy": 3876,
      "ĠNickel": 3877,
      "Ġonce": 3878,
      "ĠMut": 3879,
      "ĠDamping": 3880,
      "Ġloo": 3881,
      "Ġ74": 3882,
      "Ġweigh": 3883,
      "ĠOut": 3884,
      "Ġexpen": 3885,
      "Ġnext": 3886,
      "Ġmeet": 3887,
      "Ġuncharged": 3888,
      "Ġimpro": 3889,
      "Ġ/(": 3890,
      "ĠThrough": 3891,
      "Ġcomm": 3892,
      "ope": 3893,
      "ĠFinding": 3894,
      "Ġ1600": 3895,
      "Ġmoved": 3896,
      "133": 3897,
      "190": 3898,
      "Ġsearch": 3899,
      "ĠAnother": 3900,
      "ĠConstruction": 3901,
      "Ġobs": 3902,
      "Ġobviously": 3903,
      "Ġremove": 3904,
      "280": 3905,
      "Ġcarried": 3906,
      "itudes": 3907,
      "Ġmmf": 3908,
      "Ġradio": 3909,
      "cosÎ¸": 3910,
      "Ġsmaller": 3911,
      "Ġoperator": 3912,
      "Ġrelatively": 3913,
      "Ġreversing": 3914,
      "Ġsubtract": 3915,
      "Ġmagnetism": 3916,
      "Ġswitched": 3917,
      "ĠProve": 3918,
      "Ġelectrically": 3919,
      "Ġaxial": 3920,
      "Ġstray": 3921,
      "Ġinsulating": 3922,
      "Ġprovides": 3923,
      "mania": 3924,
      "Ġmultiplying": 3925,
      "Ġradians": 3926,
      "Ġstatement": 3927,
      "Ġchoking": 3928,
      "Ġoxide": 3929,
      "Ġadjusted": 3930,
      "ĠSystems": 3931,
      "Ġlife": 3932,
      "ĠBandpass": 3933,
      "ĠNext": 3934,
      "Ġwheel": 3935,
      "Ġdynamometer": 3936,
      "Ġsubstance": 3937,
      "Ġintegr": 3938,
      "linear": 3939,
      "ĠAMIE": 3940,
      "ĠScience": 3941,
      "Ġproperty": 3942,
      "Ġutilized": 3943,
      "Ġexponentially": 3944,
      "Ġdimensions": 3945,
      "Ġextremely": 3946,
      "ĠIncidentally": 3947,
      "ĠOverall": 3948,
      "Ġimmersed": 3949,
      "Ġoscill": 3950,
      "ĠOsmania": 3951,
      ".]": 3952,
      "012": 3953,
      "118": 3954,
      "113": 3955,
      "LECT": 3956,
      "Me": 3957,
      "Un": 3958,
      "arent": 3959,
      "bered": 3960,
      "farad": 3961,
      "gency": 3962,
      "ks": 3963,
      "mm": 3964,
      "oir": 3965,
      "oxide": 3966,
      "til": 3967,
      "uss": 3968,
      "we": 3969,
      "Î²": 3970,
      "Ġ{": 3971,
      "Ġtable": 3972,
      "ination": 3973,
      "Ġcd": 3974,
      "Ġ130": 3975,
      "erved": 3976,
      "Ġsitu": 3977,
      "Ġsens": 3978,
      "Ġsometimes": 3979,
      "itions": 3980,
      "ality": 3981,
      "enz": 3982,
      "ather": 3983,
      "Ġphen": 3984,
      "Ġinst": 3985,
      "Ġinert": 3986,
      "Ġbet": 3987,
      "Ġbrought": 3988,
      "Ġwort": 3989,
      "Ġmi": 3990,
      "ĠdÎ¦": 3991,
      "ĠIZ": 3992,
      "Ġredrawn": 3993,
      "Ġval": 3994,
      "ĠFour": 3995,
      "ĠFollow": 3996,
      "0043": 3997,
      "ĠRo": 3998,
      "ĠRec": 3999,
      "Ġ+(âĪĴ": 4000,
      "Ġcover": 4001,
      "ĠEF": 4002,
      "Ġ450": 4003,
      "Ġreserv": 4004,
      "Ġbear": 4005,
      "ĠSCR": 4006,
      "ĠBoth": 4007,
      "ĠLL": 4008,
      "umes": 4009,
      "dustr": 4010,
      "usion": 4011,
      "ĠNN": 4012,
      "aped": 4013,
      "osen": 4014,
      "ĠMagn": 4015,
      "ĠMadras": 4016,
      "Ġ127": 4017,
      "veral": 4018,
      "Ġchosen": 4019,
      "omin": 4020,
      "omen": 4021,
      "ĠUnit": 4022,
      "resonant": 4023,
      "Ġabc": 4024,
      "254": 4025,
      "141": 4026,
      "Ġnoting": 4027,
      "165": 4028,
      "ĠKOH": 4029,
      "Ġcompound": 4030,
      "Electromagnetic": 4031,
      "Ġheight": 4032,
      "Ġadvantage": 4033,
      "Ġ170": 4034,
      "Ġ173": 4035,
      "ampere": 4036,
      "Ġ1996": 4037,
      "Ġ1998": 4038,
      "ridges": 4039,
      "circuits": 4040,
      "Ġdecibel": 4041,
      "Ġrotor": 4042,
      "Ġoperate": 4043,
      "Ġloops": 4044,
      "Ġsurfaces": 4045,
      "Ġsolid": 4046,
      "Ġdivisions": 4047,
      "ĠChange": 4048,
      "Ġelectrodynamic": 4049,
      "Ġavoid": 4050,
      "Ġinterval": 4051,
      "Ġinitially": 4052,
      "Ġsprings": 4053,
      "Ġmanner": 4054,
      "Ġgreat": 4055,
      "ĠPbSO": 4056,
      "Ġcircumf": 4057,
      "ĠStarting": 4058,
      "Ġregist": 4059,
      "ĠExpress": 4060,
      "Ġdeliv": 4061,
      "Ġmotors": 4062,
      "Ġcorrectly": 4063,
      "Ġlift": 4064,
      "ĠNew": 4065,
      "Ġdegrees": 4066,
      "Ġfilm": 4067,
      "Ġaffected": 4068,
      "Ġsteps": 4069,
      "Ġestablished": 4070,
      "ordinates": 4071,
      "ĠType": 4072,
      "Ġaccurate": 4073,
      "Ġmentioned": 4074,
      "ĠSequence": 4075,
      "ĠDividing": 4076,
      "Ġvehicles": 4077,
      "Ġconvention": 4078,
      "Ġcharacteristics": 4079,
      "Principles": 4080,
      "carrying": 4081,
      "Ġalkaline": 4082,
      "Ġparameters": 4083,
      "Ġimagin": 4084,
      "ynch": 4085,
      "ĠMachines": 4086,
      "ĠRepresentation": 4087,
      "Ġbegin": 4088,
      "LECTR": 4089,
      "Ġphenomen": 4090,
      "Ġinertia": 4091,
      "Ġworth": 4092,
      "ĠFollowing": 4093,
      "Ġreservoir": 4094,
      "Ġcircumference": 4095,
      ")âĢĶ": 4096,
      "*.": 4097,
      "225": 4098,
      "700": 4099,
      "900": 4100,
      "App": 4101,
      "DE": 4102,
      "Delta": 4103,
      "Ele": 4104,
      "July": 4105,
      "NE": 4106,
      "PS": 4107,
      "SWER": 4108,
      "bal": 4109,
      "city": 4110,
      "clockwise": 4111,
      "fety": 4112,
      "hing": 4113,
      "jÎ¸": 4114,
      "kVA": 4115,
      "mand": 4116,
      "thed": 4117,
      "Ïģ": 4118,
      "Ġter": 4119,
      "Ġtes": 4120,
      "Ġtele": 4121,
      "rect": 4122,
      "Ġour": 4123,
      "Ġslow": 4124,
      "Ġ216": 4125,
      "Ġâĭħ": 4126,
      "Ġindustr": 4127,
      "Ġbl": 4128,
      "Ġboundary": 4129,
      "Ġballistic": 4130,
      "Ġfin": 4131,
      "Ġfar": 4132,
      "ĠAF": 4133,
      "ĠmV": 4134,
      "ĠII": 4135,
      "Ġreverse": 4136,
      "Ġvice": 4137,
      "olysis": 4138,
      "ĠTime": 4139,
      "ĠFle": 4140,
      "ĠFebruary": 4141,
      "Ġeq": 4142,
      "ĠCC": 4143,
      "irable": 4144,
      "Ġlar": 4145,
      "Ġlater": 4146,
      "Ġlie": 4147,
      "Ġlamin": 4148,
      "ĠEfficiency": 4149,
      "ĠELECTR": 4150,
      "Ġ108": 4151,
      "illed": 4152,
      "istors": 4153,
      "ĠBe": 4154,
      "ĠBalance": 4155,
      "Ġvoltamperes": 4156,
      "charging": 4157,
      "state": 4158,
      "stand": 4159,
      "âĢĺ": 4160,
      "Ġrates": 4161,
      "ĠNB": 4162,
      "ĠNove": 4163,
      "ĠPure": 4164,
      "ĠPosit": 4165,
      "ĠPolar": 4166,
      "Ġattain": 4167,
      "101": 4168,
      "Ġpowers": 4169,
      "ĠMin": 4170,
      "Ġ87": 4171,
      "ĠDeterm": 4172,
      "Ġ128": 4173,
      "Ġacco": 4174,
      "ominal": 4175,
      "Ġ)]": 4176,
      "Ġ700": 4177,
      "Ġsupposed": 4178,
      "âİ¯": 4179,
      "ĠOD": 4180,
      "ĠOH": 4181,
      "Ġ202": 4182,
      "ĠYN": 4183,
      "âĢĻ,": 4184,
      "Ġexpect": 4185,
      "Ġexerted": 4186,
      "Ġdeal": 4187,
      "Ġleaving": 4188,
      "Ġappears": 4189,
      "ĠÎ¼A": 4190,
      "struct": 4191,
      "156": 4192,
      "142": 4193,
      "Ġimpressed": 4194,
      "Ġdisconnected": 4195,
      "Ġperform": 4196,
      "162": 4197,
      "188": 4198,
      "deg": 4199,
      "allic": 4200,
      "Ġmov": 4201,
      "Ġadd": 4202,
      "Ġrelated": 4203,
      "ĠJad": 4204,
      "Ġseveral": 4205,
      "Ġreaction": 4206,
      "Ġpotentials": 4207,
      "Ġcapacitances": 4208,
      "Ġquality": 4209,
      "ribed": 4210,
      "ably": 4211,
      "ĠConsequently": 4212,
      "Ġdeflected": 4213,
      "Ġremember": 4214,
      "226": 4215,
      "Ġtang": 4216,
      "667": 4217,
      "Ġwaveforms": 4218,
      "Ġpassage": 4219,
      "Ġgenerators": 4220,
      "Ġdifferences": 4221,
      "circuiting": 4222,
      "avel": 4223,
      "Ġâİ¡(": 4224,
      "Ġproportion": 4225,
      "ĠStored": 4226,
      "Ġsix": 4227,
      "ĠNov": 4228,
      "cket": 4229,
      "induction": 4230,
      "Ġtravel": 4231,
      "Ġmagnetised": 4232,
      "ucture": 4233,
      "ĠInductive": 4234,
      "ĠEquation": 4235,
      "Ġseparately": 4236,
      "Ġmutually": 4237,
      "Ġstandby": 4238,
      "Ġearthed": 4239,
      "Ġdecreasing": 4240,
      "Ġslight": 4241,
      "ĠProblem": 4242,
      "Ġregard": 4243,
      "Ġraise": 4244,
      "Ġbook": 4245,
      "ĠDischarging": 4246,
      "Ġgraphically": 4247,
      "ÏĢÏĢÏĢÏĢ": 4248,
      "ĠAlternatively": 4249,
      "ĠBandstop": 4250,
      "iprocity": 4251,
      "Ġdisplaced": 4252,
      "Ġbreakdown": 4253,
      "Ġfraction": 4254,
      "ĠANSWER": 4255,
      "ĠGeneration": 4256,
      "ĠResistivity": 4257,
      "ronous": 4258,
      "bsolute": 4259,
      "ĠMatrix": 4260,
      "ĠDecibel": 4261,
      "ĠIntensity": 4262,
      "Ġdescribed": 4263,
      "Ġdiffer": 4264,
      "ĠMagnetisation": 4265,
      "Ġanswer": 4266,
      "Ġlayer": 4267,
      "Ġdefinition": 4268,
      "Ġrepulsion": 4269,
      "Voltage": 4270,
      "changed": 4271,
      "Ġprotect": 4272,
      "Ġmeshes": 4273,
      "ynchronous": 4274,
      "Ġaccount": 4275,
      "ĠANSWERS": 4276,
      ")/(": 4277,
      "024": 4278,
      "234": 4279,
      "4000": 4280,
      "CV": 4281,
      "LC": 4282,
      "ON": 4283,
      "Pb": 4284,
      "The": 4285,
      "auss": 4286,
      "bo": 4287,
      "capacit": 4288,
      "dI": 4289,
      "dv": 4290,
      "fect": 4291,
      "go": 4292,
      "iR": 4293,
      "ients": 4294,
      "ln": 4295,
      "ler": 4296,
      "ming": 4297,
      "tically": 4298,
      "uck": 4299,
      "ytical": 4300,
      "Ġ^": 4301,
      "Ġ}": 4302,
      "Ġes": 4303,
      "Ġtill": 4304,
      "Ġtors": 4305,
      "Ġaud": 4306,
      "heost": 4307,
      "ining": 4308,
      "Ġtheory": 4309,
      "Ġcc": 4310,
      "ism": 4311,
      "eral": 4312,
      "onomet": 4313,
      "atical": 4314,
      "Ġpm": 4315,
      "Ġpiv": 4316,
      "Ġpaper": 4317,
      "Ġburn": 4318,
      "Ġfive": 4319,
      "Ġfair": 4320,
      "Ġwt": 4321,
      "ĠAbsolute": 4322,
      "Ġmid": 4323,
      "Ġdc": 4324,
      "Ġdot": 4325,
      "ĠIron": 4326,
      "Ġreconnected": 4327,
      "Ġreturn": 4328,
      "Ġreduction": 4329,
      "roduction": 4330,
      "roda": 4331,
      "Ġecon": 4332,
      "Ġemer": 4333,
      "Ġ320": 4334,
      "Ġtoo": 4335,
      "igonomet": 4336,
      "ĠCond": 4337,
      "ĠSign": 4338,
      "ĠSelf": 4339,
      "ĠSym": 4340,
      "Ġnatur": 4341,
      "Ġnominal": 4342,
      "ĠBridges": 4343,
      "ĠLenz": 4344,
      "ĠjÏīL": 4345,
      "Ġhyd": 4346,
      "Ġhold": 4347,
      "advantages": 4348,
      "oted": 4349,
      "Ġrheost": 4350,
      "ĠHigh": 4351,
      "unication": 4352,
      "ull": 4353,
      "imon": 4354,
      "Ġwithstand": 4355,
      "108": 4356,
      "ĠMass": 4357,
      "ĠMaterial": 4358,
      "ĠDire": 4359,
      "Ġalloy": 4360,
      "ĠInstant": 4361,
      "Ġchapter": 4362,
      "Ġ93": 4363,
      "Ġ99": 4364,
      "Ġ)(": 4365,
      "Ġ78": 4366,
      "Ġ796": 4367,
      "ĠXY": 4368,
      "Ġnear": 4369,
      "Ġcharger": 4370,
      "Ġsupplying": 4371,
      "Ġappear": 4372,
      "159": 4373,
      "Ġdirec": 4374,
      "168": 4375,
      "Ġintere": 4376,
      "Ġrepel": 4377,
      "Ġmetallic": 4378,
      "Ġ160": 4379,
      "pection": 4380,
      "132": 4381,
      "Ġadv": 4382,
      "Ġadmitt": 4383,
      "ĠJo": 4384,
      "360": 4385,
      "176": 4386,
      "Ġforces": 4387,
      "ĠAnd": 4388,
      "fficients": 4389,
      "Ġsoft": 4390,
      "Ġround": 4391,
      "Ġrods": 4392,
      "Ġremem": 4393,
      "Ġgenerating": 4394,
      "Ġyears": 4395,
      "Ġenough": 4396,
      "Ġreactances": 4397,
      "Ġshorted": 4398,
      "avpur": 4399,
      "Ġoppose": 4400,
      "Ġrotate": 4401,
      "Ġinspection": 4402,
      "Ġrepresentation": 4403,
      "056": 4404,
      "Ġtrickle": 4405,
      "sinÎ¸": 4406,
      "Ġelec": 4407,
      "Ġlonger": 4408,
      "Ġspecial": 4409,
      "Ġconsideration": 4410,
      "ĠCompar": 4411,
      "ĠAddition": 4412,
      "ĠTransient": 4413,
      "Ġsets": 4414,
      "ĠValues": 4415,
      "ĠLoads": 4416,
      "Ġcorrection": 4417,
      "Ġceram": 4418,
      "Ġdownward": 4419,
      "ĠIndic": 4420,
      "Ġimportance": 4421,
      "Electrostatics": 4422,
      "Ġmica": 4423,
      "ĠMeters": 4424,
      "Ġkilo": 4425,
      "Ġcontinuously": 4426,
      "Ġrunning": 4427,
      "ĠErrors": 4428,
      "Ġdepending": 4429,
      "ĠElectrostatic": 4430,
      "Ġordinates": 4431,
      "ĠDefine": 4432,
      "ĠDeflecting": 4433,
      "ĠCurve": 4434,
      "Ġfaces": 4435,
      "ĠEdison": 4436,
      "ĠPercentage": 4437,
      "Ġliberated": 4438,
      "ĠCombined": 4439,
      "Ġâİ¯âİ¯": 4440,
      "ĠBaroda": 4441,
      "Ġbetter": 4442,
      "Ġphenomenon": 4443,
      "ĠFleming": 4444,
      "ĠNovember": 4445,
      "ĠPositive": 4446,
      "ĠJadavpur": 4447,
      "Ġeconom": 4448,
      "Ġnatural": 4449,
      "Ġrheostat": 4450,
      "ĠInstantaneous": 4451,
      "Ġinterest": 4452,
      "Ġadmittances": 4453,
      ")âİ¥âİ¦": 4454,
      ".).": 4455,
      "210": 4456,
      "2000": 4457,
      "318": 4458,
      "490": 4459,
      "AR": 4460,
      "Ch": 4461,
      "Con": 4462,
      "Circuit": 4463,
      "February": 4464,
      "IR": 4465,
      "aut": 4466,
      "aise": 4467,
      "ems": 4468,
      "from": 4469,
      "gr": 4470,
      "ix": 4471,
      "ict": 4472,
      "iating": 4473,
      "nÏīt": 4474,
      "rically": 4475,
      "tta": 4476,
      "uced": 4477,
      "Âµ": 4478,
      "read": 4479,
      "Ġtheore": 4480,
      "Ġcuit": 4481,
      "iss": 4482,
      "ising": 4483,
      "Ġsat": 4484,
      "Ġsag": 4485,
      "Ġsiemens": 4486,
      "Ġ224": 4487,
      "onge": 4488,
      "Ġinver": 4489,
      "Ġinwards": 4490,
      "oring": 4491,
      "ceed": 4492,
      "cember": 4493,
      "Ġbest": 4494,
      "Ġweld": 4495,
      "ĠâĪĳ": 4496,
      "ĠâĪŀ": 4497,
      "urb": 4498,
      "Ġred": 4499,
      "Ġreactor": 4500,
      "Ġreject": 4501,
      "Ġreached": 4502,
      "oll": 4503,
      "olves": 4504,
      "arm": 4505,
      "ĠFe": 4506,
      "ĠFinal": 4507,
      "002": 4508,
      "Ġemf": 4509,
      "Ġtop": 4510,
      "ĠRule": 4511,
      "ĠRatio": 4512,
      "ĠCross": 4513,
      "ĠCoulomb": 4514,
      "Ġcoupling": 4515,
      "mplif": 4516,
      "Ġ415": 4517,
      "ilities": 4518,
      "Ġbel": 4519,
      "ĠSus": 4520,
      "ĠSulph": 4521,
      "Ġname": 4522,
      "Ġconstruct": 4523,
      "ĠLight": 4524,
      "Ġhr": 4525,
      "Ġhad": 4526,
      "star": 4527,
      "ircular": 4528,
      "Ġgas": 4529,
      "Ġ67": 4530,
      "elves": 4531,
      "Ġshaft": 4532,
      "ulation": 4533,
      "Ġcircuited": 4534,
      "ters": 4535,
      "ĠkÎ¸": 4536,
      "107": 4537,
      "ĠMW": 4538,
      "Ġ8000": 4539,
      "amber": 4540,
      "Ġalloys": 4541,
      "Ġstates": 4542,
      "ĠInternal": 4543,
      "ĠsinÎ¸": 4544,
      "ĠsinÏīt": 4545,
      "Ġ94": 4546,
      "Ġ95": 4547,
      "Ġ750": 4548,
      "Ġ156": 4549,
      "Ġsuppose": 4550,
      "odes": 4551,
      "ĠOM": 4552,
      "ĠOper": 4553,
      "ÏĢL": 4554,
      "Ġuses": 4555,
      "Ġextr": 4556,
      "Ġpointed": 4557,
      "Ġdemand": 4558,
      "Ġapparat": 4559,
      "Ġ143": 4560,
      "Ġ255": 4561,
      "Ġfluxmeter": 4562,
      "Ġ132": 4563,
      "Ġtermin": 4564,
      "157": 4565,
      "Ġplant": 4566,
      "pension": 4567,
      "Ġspl": 4568,
      "Ġspent": 4569,
      "ĠThat": 4570,
      "166": 4571,
      "ĠGauss": 4572,
      "ift": 4573,
      "Ġcommer": 4574,
      "ĠAlthough": 4575,
      "ĠÏĢÎµ": 4576,
      "ĠÏĢÏĢÏĢÏĢÏĢ": 4577,
      "Ġselect": 4578,
      "Ġreactions": 4579,
      "Ġtransmission": 4580,
      "amped": 4581,
      "ĠConversion": 4582,
      "Ġ1999": 4583,
      "752": 4584,
      "erson": 4585,
      "ĠâİŁ=": 4586,
      "Ġyet": 4587,
      "Ġupward": 4588,
      "Ġobtaining": 4589,
      "Ġsize": 4590,
      "Ġmagnitudes": 4591,
      "377": 4592,
      "Ġoperated": 4593,
      "ĠUsually": 4594,
      "ĠWeber": 4595,
      "Ġswing": 4596,
      "ĠCapacitors": 4597,
      "âİ¤âİ¡": 4598,
      "Ġcontained": 4599,
      "hours": 4600,
      "Ġdesired": 4601,
      "Ġstrong": 4602,
      "598": 4603,
      "ĠNotation": 4604,
      "ĠMeasurement": 4605,
      "ĠComponents": 4606,
      "Ġcuts": 4607,
      "Â°=âĪĴ": 4608,
      "Ġcalculating": 4609,
      "Ġcalculations": 4610,
      "Ġprevious": 4611,
      "ĠConsidering": 4612,
      "ĠRelations": 4613,
      "ibility": 4614,
      "lagging": 4615,
      "Ġsuspension": 4616,
      "Ġmultiplied": 4617,
      "ĠâĪłâĪłâĪłâĪłâĪłâĪĴâĪĴâĪĴâĪĴâĪĴ": 4618,
      "ylindrical": 4619,
      "Ġtesting": 4620,
      "Ġattracted": 4621,
      "Ġlimits": 4622,
      "Ġlimited": 4623,
      "Ġexperim": 4624,
      "shaped": 4625,
      "radian": 4626,
      "Ġtend": 4627,
      "Ġengine": 4628,
      "Ġsimplified": 4629,
      "Ġframe": 4630,
      "Ġnumerical": 4631,
      "Ġsulphate": 4632,
      "ĠGeneral": 4633,
      "Ġcompensated": 4634,
      "Ġproperties": 4635,
      "ordinate": 4636,
      "Ġexperienced": 4637,
      "Ġsimultaneously": 4638,
      "Ġshifted": 4639,
      "ĠMathem": 4640,
      "Ġcomparatively": 4641,
      "Ġmolecules": 4642,
      "ogram": 4643,
      "Ġevaluated": 4644,
      "Ġvibration": 4645,
      "ĠJanuary": 4646,
      "ĠCalcutta": 4647,
      "ĠSimplif": 4648,
      "Ġrequirements": 4649,
      "Ġyou": 4650,
      "Ġapproximately": 4651,
      "ĠQuantities": 4652,
      "Resonant": 4653,
      "ĠCheck": 4654,
      "ĠNumbers": 4655,
      "ĠDiagrams": 4656,
      "Ġpresence": 4657,
      "ĠHyder": 4658,
      "ĠMutual": 4659,
      "Ġlooked": 4660,
      "Ġobserved": 4661,
      "Ġexpected": 4662,
      "degree": 4663,
      "Ġmovable": 4664,
      "Ġaudio": 4665,
      "Ġemergency": 4666,
      "ĠConditions": 4667,
      "Ġremembered": 4668,
      "Ġextra": 4669,
      "Ġapparatus": 4670,
      "Ġcommerc": 4671,
      "130": 4672,
      "114": 4673,
      "218": 4674,
      "235": 4675,
      "336": 4676,
      "416": 4677,
      "460": 4678,
      "520": 4679,
      "750": 4680,
      "AG": 4681,
      "AL": 4682,
      "AM": 4683,
      "Ex": 4684,
      "MF": 4685,
      "PT": 4686,
      "Sh": 4687,
      "Sum": 4688,
      "VC": 4689,
      "Wien": 4690,
      "ares": 4691,
      "bit": 4692,
      "bran": 4693,
      "core": 4694,
      "day": 4695,
      "delta": 4696,
      "ex": 4697,
      "fact": 4698,
      "jX": 4699,
      "jab": 4700,
      "jarat": 4701,
      "mH": 4702,
      "mag": 4703,
      "open": 4704,
      "ric": 4705,
      "source": 4706,
      "tent": 4707,
      "ufact": 4708,
      "vals": 4709,
      "when": 4710,
      "zinc": 4711,
      "Î¨": 4712,
      "ĠÃ·": 4713,
      "Ħ¦": 4714,
      "Ġtin": 4715,
      "Ġtun": 4716,
      "Ġtab": 4717,
      "heat": 4718,
      "head": 4719,
      "heres": 4720,
      "rev": 4721,
      "Ġtheorems": 4722,
      "Ġsatur": 4723,
      "Ġsketch": 4724,
      "Ġsynchronous": 4725,
      "Ġ280": 4726,
      "itational": 4727,
      "atment": 4728,
      "anc": 4729,
      "any": 4730,
      "Ġply": 4731,
      "Ġplease": 4732,
      "ctave": 4733,
      "Ġant": 4734,
      "Ġbd": 4735,
      "Ġbu": 4736,
      "Ġfer": 4737,
      "Ġfed": 4738,
      "Ġwood": 4739,
      "edi": 4740,
      "Ġmag": 4741,
      "Ġdq": 4742,
      "Ġdays": 4743,
      "ĠImag": 4744,
      "arges": 4745,
      "ĠTech": 4746,
      "ĠTable": 4747,
      "ĠVelocity": 4748,
      "003": 4749,
      "Ġel": 4750,
      "Ġem": 4751,
      "ancel": 4752,
      "ĠCO": 4753,
      "ĠCycle": 4754,
      "ĠCalcul": 4755,
      "Ġthing": 4756,
      "Ġlit": 4757,
      "Ġlast": 4758,
      "Ġcot": 4759,
      "cum": 4760,
      "ilib": 4761,
      "Ġ51": 4762,
      "ĠSketch": 4763,
      "ĠBE": 4764,
      "ĠBack": 4765,
      "ĠLow": 4766,
      "ĠLag": 4767,
      "ĠjR": 4768,
      "Ġjy": 4769,
      "Ġhard": 4770,
      "change": 4771,
      "Ġge": 4772,
      "Ġranges": 4773,
      "Ġrather": 4774,
      "unjab": 4775,
      "Ġitems": 4776,
      "Â°]": 4777,
      "Â°)=": 4778,
      "ĠPunjab": 4779,
      "ithium": 4780,
      "Ġdiam": 4781,
      "Ġsuper": 4782,
      "Ġko": 4783,
      "ĠMI": 4784,
      "ĠMPT": 4785,
      "Ġphys": 4786,
      "ĠDensity": 4787,
      "Ġlost": 4788,
      "Ġacce": 4789,
      "ĠUPS": 4790,
      "ĠInput": 4791,
      "ĠsinÎ±": 4792,
      "Ġequilib": 4793,
      "Ġ960": 4794,
      "oming": 4795,
      "omotive": 4796,
      "Ġpost": 4797,
      "hering": 4798,
      "herical": 4799,
      "range": 4800,
      "ĠOff": 4801,
      "ÏĢÎ¼": 4802,
      "Ġexcessive": 4803,
      "252": 4804,
      "258": 4805,
      "requency": 4806,
      "Ġ119": 4807,
      "Ġ147": 4808,
      "Ġunless": 4809,
      "Ġtermi": 4810,
      "144": 4811,
      "146": 4812,
      "elling": 4813,
      "Ġspheres": 4814,
      "ĠThird": 4815,
      "163": 4816,
      "assing": 4817,
      "ĠGw": 4818,
      "ify": 4819,
      "Ġrepe": 4820,
      "Ġcompute": 4821,
      "ulti": 4822,
      "Ġoutwards": 4823,
      "Ġconductances": 4824,
      "134": 4825,
      "Ġadop": 4826,
      "Ġadvantages": 4827,
      "Ġincoming": 4828,
      "Ġquite": 4829,
      "Ġstarts": 4830,
      "Ġarrow": 4831,
      "rium": 4832,
      "rief": 4833,
      "ittle": 4834,
      "loss": 4835,
      "223": 4836,
      "Ġpermeab": 4837,
      "pended": 4838,
      "Ġ2400": 4839,
      "Ġnumbers": 4840,
      "265": 4841,
      "avart": 4842,
      "Ġopened": 4843,
      "Ġdecay": 4844,
      "area": 4845,
      "coup": 4846,
      "Ġopposes": 4847,
      "Ġclass": 4848,
      "Ġdirected": 4849,
      "Ġrotated": 4850,
      "Ġsolve": 4851,
      "ĠCapacitive": 4852,
      "Ġsignific": 4853,
      "Ġshowing": 4854,
      "Ġreplacing": 4855,
      "responding": 4856,
      "ĠMetal": 4857,
      "ĠLeakage": 4858,
      "Ġcommonly": 4859,
      "Ġwasted": 4860,
      "Ġdrum": 4861,
      "Ġmanufact": 4862,
      "Ġstands": 4863,
      "Ġextens": 4864,
      "Ġconsiderable": 4865,
      "Ġpermittivities": 4866,
      "Ġsquares": 4867,
      "ydrogen": 4868,
      "Ġbandstop": 4869,
      "Ġprec": 4870,
      "Ġmathem": 4871,
      "ĠAdvantages": 4872,
      "ĠFilters": 4873,
      "Ġfourth": 4874,
      "Ġdriven": 4875,
      "Ġperiods": 4876,
      "Ġeasy": 4877,
      "Ġquadrants": 4878,
      "ĠNegative": 4879,
      "xture": 4880,
      "Ġadjustment": 4881,
      "Ġcalibration": 4882,
      "ĠGujarat": 4883,
      "bolic": 4884,
      "Ġcylindrical": 4885,
      "Ġpuls": 4886,
      "Ġpairs": 4887,
      "Ġexcited": 4888,
      "Ġrelationships": 4889,
      "Ġtends": 4890,
      "ĠSphere": 4891,
      "Ġengineering": 4892,
      "Ġgroups": 4893,
      "Ġfilam": 4894,
      "ĠWaveforms": 4895,
      "Ġwebers": 4896,
      "Ġkeeps": 4897,
      "Ġreduces": 4898,
      "ĠTypes": 4899,
      "Ġatomic": 4900,
      "ĠIntroduction": 4901,
      "Ġextended": 4902,
      "Ġtreated": 4903,
      "ĠVariable": 4904,
      "Ġmicrofarad": 4905,
      "Ġpieces": 4906,
      "ĠRemember": 4907,
      "Ġtempt": 4908,
      "Ġcoefficients": 4909,
      "ĠPrinciple": 4910,
      "Ġhalves": 4911,
      "Ġsuccessive": 4912,
      "rupt": 4913,
      "Ġthermo": 4914,
      "Ġweighs": 4915,
      "Ġsensitivity": 4916,
      "Ġmixture": 4917,
      "Elements": 4918,
      "Ġlaminated": 4919,
      "ĠNBI": 4920,
      "Ġslightly": 4921,
      "Ġfairly": 4922,
      "ĠMaterials": 4923,
      "ĠAnderson": 4924,
      "Ġsatis": 4925,
      "ĠHyderabad": 4926,
      "ĠImagine": 4927,
      "Ġequilibrium": 4928,
      "/Â°": 4929,
      "236": 4930,
      "345": 4931,
      "412": 4932,
      "415": 4933,
      "414": 4934,
      "637": 4935,
      "=(": 4936,
      "AB": 4937,
      "AN": 4938,
      "Balanced": 4939,
      "Current": 4940,
      "Max": 4941,
      "NG": 4942,
      "TE": 4943,
      "Th": 4944,
      "band": 4945,
      "cl": 4946,
      "cr": 4947,
      "come": 4948,
      "ek": 4949,
      "ference": 4950,
      "iot": 4951,
      "lor": 4952,
      "magnetis": 4953,
      "oss": 4954,
      "po": 4955,
      "pec": 4956,
      "rd": 4957,
      "rate": 4958,
      "ratio": 4959,
      "say": 4960,
      "techn": 4961,
      "âĭħ": 4962,
      "ĠÃ": 4963,
      "Ġion": 4964,
      "Ġ..": 4965,
      "Ġtions": 4966,
      "Ġtively": 4967,
      "Ġao": 4968,
      "ins": 4969,
      "inmet": 4970,
      "rec": 4971,
      "reading": 4972,
      "Ġthems": 4973,
      "Ġcub": 4974,
      "Ġcancel": 4975,
      "Ġ=âİ¢": 4976,
      "isation": 4977,
      "Ġsil": 4978,
      "Ġsimilarly": 4979,
      "Ġ226": 4980,
      "iting": 4981,
      "alior": 4982,
      "ank": 4983,
      "anation": 4984,
      "Ġpos": 4985,
      "Ġpaise": 4986,
      "Ġann": 4987,
      "Ġance": 4988,
      "Ġbur": 4989,
      "Ġbring": 4990,
      "Ġbilateral": 4991,
      "Ġbrief": 4992,
      "Ġft": 4993,
      "Ġfitt": 4994,
      "Ġfail": 4995,
      "leading": 4996,
      "Ġms": 4997,
      "Ġmil": 4998,
      "ĠdE": 4999
    },
    "merges": [
      [
        "Ġ",
        "t"
      ],
      [
        "Ġ",
        "a"
      ],
      [
        "h",
        "e"
      ],
      [
        "i",
        "n"
      ],
      [
        "r",
        "e"
      ],
      [
        "Ġt",
        "he"
      ],
      [
        "Ġ",
        "c"
      ],
      [
        "Ġ",
        "="
      ],
      [
        "Ġ",
        "1"
      ],
      [
        "Ġ",
        "o"
      ],
      [
        "i",
        "s"
      ],
      [
        "e",
        "r"
      ],
      [
        "Ġ",
        "s"
      ],
      [
        "Ġ",
        "2"
      ],
      [
        "o",
        "n"
      ],
      [
        "Ġo",
        "f"
      ],
      [
        "i",
        "t"
      ],
      [
        "Ġ",
        "â"
      ],
      [
        "Ġ",
        "("
      ],
      [
        "a",
        "l"
      ],
      [
        "e",
        "n"
      ],
      [
        "a",
        "t"
      ],
      [
        "a",
        "n"
      ],
      [
        "Ġ",
        "p"
      ],
      [
        "Ġ",
        "in"
      ],
      [
        "c",
        "t"
      ],
      [
        "o",
        "r"
      ],
      [
        "c",
        "e"
      ],
      [
        "Ġa",
        "n"
      ],
      [
        "Ġ",
        "b"
      ],
      [
        "Ġ",
        "f"
      ],
      [
        "l",
        "e"
      ],
      [
        "Ġ",
        "is"
      ],
      [
        "Ġ",
        "w"
      ],
      [
        "Ġâ",
        "Ī"
      ],
      [
        "e",
        "d"
      ],
      [
        "Ġan",
        "d"
      ],
      [
        "Ġ",
        "A"
      ],
      [
        "Ġ",
        "m"
      ],
      [
        "Ġ",
        "d"
      ],
      [
        "Ġ",
        "I"
      ],
      [
        "in",
        "g"
      ],
      [
        "u",
        "r"
      ],
      [
        "Ġ",
        "re"
      ],
      [
        "Ġ",
        "v"
      ],
      [
        "o",
        "l"
      ],
      [
        "r",
        "o"
      ],
      [
        "a",
        "r"
      ],
      [
        "e",
        "s"
      ],
      [
        "e",
        "t"
      ],
      [
        "Ġ",
        "0"
      ],
      [
        "Ġ",
        "T"
      ],
      [
        "i",
        "on"
      ],
      [
        "Ġ",
        "V"
      ],
      [
        "Ġ",
        "F"
      ],
      [
        "i",
        "c"
      ],
      [
        "o",
        "w"
      ],
      [
        "0",
        "0"
      ],
      [
        "Ġ",
        "e"
      ],
      [
        "a",
        "g"
      ],
      [
        "Ã",
        "Ĺ"
      ],
      [
        "Ġ",
        "3"
      ],
      [
        "i",
        "v"
      ],
      [
        "re",
        "n"
      ],
      [
        "ĠâĪ",
        "Ĵ"
      ],
      [
        "Ġt",
        "o"
      ],
      [
        "i",
        "g"
      ],
      [
        "a",
        "s"
      ],
      [
        "an",
        "ce"
      ],
      [
        "Ġ",
        "R"
      ],
      [
        "Ġ",
        "Î"
      ],
      [
        "ren",
        "t"
      ],
      [
        "Ġ",
        "C"
      ],
      [
        "ur",
        "rent"
      ],
      [
        "Ġ",
        "+"
      ],
      [
        "Ġt",
        "h"
      ],
      [
        "i",
        "r"
      ],
      [
        "Ġ",
        "l"
      ],
      [
        "Ġc",
        "o"
      ],
      [
        "Ġc",
        "urrent"
      ],
      [
        "m",
        "p"
      ],
      [
        "en",
        "t"
      ],
      [
        "Ġ",
        "E"
      ],
      [
        "c",
        "u"
      ],
      [
        "Ġ",
        "ÃĹ"
      ],
      [
        "Ġ",
        "4"
      ],
      [
        "Ġre",
        "s"
      ],
      [
        "ĠF",
        "ig"
      ],
      [
        "Ġ1",
        "0"
      ],
      [
        "i",
        "l"
      ],
      [
        "ĠT",
        "he"
      ],
      [
        "is",
        "t"
      ],
      [
        "Ġ",
        "5"
      ],
      [
        "Ġb",
        "e"
      ],
      [
        "Ġ",
        "S"
      ],
      [
        "Ġ",
        "n"
      ],
      [
        "â",
        "Ī"
      ],
      [
        "l",
        "y"
      ],
      [
        "q",
        "u"
      ],
      [
        "ol",
        "t"
      ],
      [
        "Ġc",
        "on"
      ],
      [
        "u",
        "t"
      ],
      [
        "Ġ",
        "B"
      ],
      [
        "Ġ",
        "L"
      ],
      [
        "Ġv",
        "olt"
      ],
      [
        "Ġ",
        "j"
      ],
      [
        "Ġ",
        "h"
      ],
      [
        "c",
        "h"
      ],
      [
        "e",
        "ct"
      ],
      [
        "s",
        "t"
      ],
      [
        "a",
        "d"
      ],
      [
        "ag",
        "e"
      ],
      [
        "ir",
        "cu"
      ],
      [
        "le",
        "ct"
      ],
      [
        "Ġres",
        "ist"
      ],
      [
        "ircu",
        "it"
      ],
      [
        "Ġ",
        "g"
      ],
      [
        "Ġa",
        "re"
      ],
      [
        "s",
        "s"
      ],
      [
        "u",
        "m"
      ],
      [
        "ŀ",
        "£"
      ],
      [
        "Ġâ",
        "İ"
      ],
      [
        "d",
        "u"
      ],
      [
        "Ġ",
        "i"
      ],
      [
        "Ġ",
        "W"
      ],
      [
        "âĪ",
        "Ĵ"
      ],
      [
        "â",
        "Ģ"
      ],
      [
        "p",
        "p"
      ],
      [
        "Ġf",
        "or"
      ],
      [
        "u",
        "s"
      ],
      [
        "o",
        "t"
      ],
      [
        "Ġ",
        "6"
      ],
      [
        "Ġ",
        "r"
      ],
      [
        "Ġb",
        "y"
      ],
      [
        "Ġ",
        "H"
      ],
      [
        "Ġvolt",
        "age"
      ],
      [
        "iv",
        "e"
      ],
      [
        "e",
        "l"
      ],
      [
        "Ġs",
        "h"
      ],
      [
        "u",
        "n"
      ],
      [
        "Ġa",
        "s"
      ],
      [
        "Ġ",
        "it"
      ],
      [
        "u",
        "l"
      ],
      [
        "Ġc",
        "ircuit"
      ],
      [
        "Ġ",
        "N"
      ],
      [
        "Ġo",
        "r"
      ],
      [
        "Ġresist",
        "ance"
      ],
      [
        "â",
        "ŀ£"
      ],
      [
        "t",
        "er"
      ],
      [
        "ow",
        "er"
      ],
      [
        "as",
        "e"
      ],
      [
        "ĠÎ",
        "©"
      ],
      [
        "a",
        "p"
      ],
      [
        "Â",
        "°"
      ],
      [
        "Ġ",
        "P"
      ],
      [
        "i",
        "i"
      ],
      [
        "Ġo",
        "n"
      ],
      [
        "it",
        "h"
      ],
      [
        "i",
        "m"
      ],
      [
        "at",
        "ion"
      ],
      [
        "v",
        "e"
      ],
      [
        ".",
        "."
      ],
      [
        "a",
        "c"
      ],
      [
        "Ġ",
        "Ï"
      ],
      [
        "it",
        "y"
      ],
      [
        "Ġa",
        "t"
      ],
      [
        "Ġth",
        "at"
      ],
      [
        "ĠâĪ",
        "´"
      ],
      [
        "al",
        "u"
      ],
      [
        "Ġd",
        "i"
      ],
      [
        "et",
        "er"
      ],
      [
        "o",
        "s"
      ],
      [
        "i",
        "d"
      ],
      [
        "at",
        "e"
      ],
      [
        "lect",
        "r"
      ],
      [
        "ow",
        "n"
      ],
      [
        "Î",
        "©"
      ],
      [
        "Ġw",
        "ith"
      ],
      [
        "Ġs",
        "u"
      ],
      [
        "Ġ",
        "k"
      ],
      [
        "a",
        "ct"
      ],
      [
        "i",
        "es"
      ],
      [
        "Ġv",
        "alu"
      ],
      [
        "Ġw",
        "h"
      ],
      [
        "ro",
        "m"
      ],
      [
        "du",
        "ct"
      ],
      [
        "1",
        "0"
      ],
      [
        "âŀ£",
        "âŀ£"
      ],
      [
        "he",
        "n"
      ],
      [
        "Ġ",
        "Z"
      ],
      [
        "Ġp",
        "ower"
      ],
      [
        "mp",
        "le"
      ],
      [
        "ap",
        "ac"
      ],
      [
        "lectr",
        "ic"
      ],
      [
        "et",
        "w"
      ],
      [
        "Ġ",
        "M"
      ],
      [
        "an",
        "t"
      ],
      [
        "Ġp",
        "h"
      ],
      [
        "Ġ",
        "8"
      ],
      [
        "Ġ",
        "D"
      ],
      [
        "Ġl",
        "o"
      ],
      [
        "in",
        "d"
      ],
      [
        "Ġ1",
        "2"
      ],
      [
        "Ġco",
        "il"
      ],
      [
        "n",
        "ect"
      ],
      [
        "a",
        "m"
      ],
      [
        "Ġa",
        "l"
      ],
      [
        "g",
        "e"
      ],
      [
        "apac",
        "it"
      ],
      [
        "Ġsh",
        "own"
      ],
      [
        "Ġa",
        "c"
      ],
      [
        "v",
        "er"
      ],
      [
        "Ġ",
        "U"
      ],
      [
        "Ġs",
        "t"
      ],
      [
        "ĠI",
        "n"
      ],
      [
        "e",
        "en"
      ],
      [
        "Ġ1",
        "00"
      ],
      [
        "ro",
        "ss"
      ],
      [
        "Ġf",
        "rom"
      ],
      [
        "f",
        "f"
      ],
      [
        "Ġs",
        "in"
      ],
      [
        "w",
        "o"
      ],
      [
        "ag",
        "n"
      ],
      [
        "o",
        "ur"
      ],
      [
        "Ġe",
        "qu"
      ],
      [
        "ol",
        "ut"
      ],
      [
        "ic",
        "h"
      ],
      [
        "Ġm",
        "a"
      ],
      [
        "Ġvalu",
        "e"
      ],
      [
        "olut",
        "ion"
      ],
      [
        "u",
        "re"
      ],
      [
        "Ġc",
        "h"
      ],
      [
        "Ġwh",
        "ich"
      ],
      [
        "Ġâ",
        "Ģ"
      ],
      [
        "Ġ",
        "9"
      ],
      [
        "Ġc",
        "apacit"
      ],
      [
        "e",
        "c"
      ],
      [
        "g",
        "y"
      ],
      [
        "Ġac",
        "ross"
      ],
      [
        "ĠE",
        "x"
      ],
      [
        "a",
        "mple"
      ],
      [
        "o",
        "m"
      ],
      [
        "nect",
        "ed"
      ],
      [
        "Ġf",
        "l"
      ],
      [
        "Ġp",
        "o"
      ],
      [
        "i",
        "al"
      ],
      [
        "Ġt",
        "wo"
      ],
      [
        "in",
        "e"
      ],
      [
        "Ġ",
        ")"
      ],
      [
        "Ġ",
        "7"
      ],
      [
        "Ġ1",
        "9"
      ],
      [
        "agn",
        "et"
      ],
      [
        "Ġ1",
        "5"
      ],
      [
        "u",
        "g"
      ],
      [
        "ĠS",
        "olution"
      ],
      [
        "ĠU",
        "n"
      ],
      [
        "ĠEx",
        "ample"
      ],
      [
        "Ġ",
        "["
      ],
      [
        "Ġw",
        "e"
      ],
      [
        ")",
        "."
      ],
      [
        "re",
        "s"
      ],
      [
        "he",
        "r"
      ],
      [
        "Â",
        "º"
      ],
      [
        "Ġp",
        "ro"
      ],
      [
        "âĪ",
        "ł"
      ],
      [
        "Ġsu",
        "pp"
      ],
      [
        "en",
        "ce"
      ],
      [
        "o",
        "re"
      ],
      [
        "a",
        "k"
      ],
      [
        "o",
        "d"
      ],
      [
        "l",
        "ate"
      ],
      [
        "r",
        "an"
      ],
      [
        "â",
        "İ"
      ],
      [
        "al",
        "le"
      ],
      [
        "a",
        "ve"
      ],
      [
        "Î©",
        "Î©"
      ],
      [
        "ug",
        "h"
      ],
      [
        "Ġ2",
        "00"
      ],
      [
        "Ġ",
        "O"
      ],
      [
        "ĠI",
        "t"
      ],
      [
        "Ġ2",
        "0"
      ],
      [
        "en",
        "c"
      ],
      [
        "in",
        "t"
      ],
      [
        "Ġ",
        "Y"
      ],
      [
        "ĠUn",
        "iv"
      ],
      [
        "er",
        "m"
      ],
      [
        "un",
        "d"
      ],
      [
        "âĢ",
        "Ļ"
      ],
      [
        "Ï",
        "Ģ"
      ],
      [
        "Ġ",
        "us"
      ],
      [
        "Ġ",
        "X"
      ],
      [
        "Ġa",
        "b"
      ],
      [
        "etw",
        "een"
      ],
      [
        "Ġe",
        "x"
      ],
      [
        "1",
        "2"
      ],
      [
        "Ġcon",
        "nected"
      ],
      [
        "on",
        "d"
      ],
      [
        "Ġ5",
        "0"
      ],
      [
        "Ġw",
        "hen"
      ],
      [
        "Ġco",
        "s"
      ],
      [
        "Ġg",
        "iv"
      ],
      [
        "Ġph",
        "ase"
      ],
      [
        "our",
        "ce"
      ],
      [
        "er",
        "ies"
      ],
      [
        "b",
        "le"
      ],
      [
        "Ġh",
        "as"
      ],
      [
        "Ġp",
        "ar"
      ],
      [
        "il",
        "l"
      ],
      [
        "Ġ",
        "."
      ],
      [
        "a",
        "ch"
      ],
      [
        "Ġth",
        "is"
      ],
      [
        "ro",
        "ugh"
      ],
      [
        "Ġn",
        "e"
      ],
      [
        "Ġb",
        "etween"
      ],
      [
        "Ġ",
        ":"
      ],
      [
        "al",
        "cu"
      ],
      [
        "Ġit",
        "s"
      ],
      [
        "l",
        "i"
      ],
      [
        "Ġpo",
        "int"
      ],
      [
        "a",
        "in"
      ],
      [
        "Ġd",
        "e"
      ],
      [
        "os",
        "it"
      ],
      [
        "ce",
        "d"
      ],
      [
        "alle",
        "l"
      ],
      [
        "Ġth",
        "rough"
      ],
      [
        "Ġch",
        "ar"
      ],
      [
        "Ġlo",
        "ad"
      ],
      [
        "Ġs",
        "ource"
      ],
      [
        "or",
        "k"
      ],
      [
        "ĠH",
        "ence"
      ],
      [
        "s",
        "ity"
      ],
      [
        "u",
        "x"
      ],
      [
        "e",
        "ch"
      ],
      [
        "Ġcapacit",
        "or"
      ],
      [
        "m",
        "eter"
      ],
      [
        "i",
        "re"
      ],
      [
        "ĠâĪ",
        "ł"
      ],
      [
        "2",
        "0"
      ],
      [
        "2",
        "5"
      ],
      [
        "re",
        "qu"
      ],
      [
        "lectric",
        "al"
      ],
      [
        "ent",
        "s"
      ],
      [
        "enc",
        "y"
      ],
      [
        "at",
        "ter"
      ],
      [
        "Ġ",
        ";"
      ],
      [
        "Ġc",
        "an"
      ],
      [
        "Ġe",
        "ach"
      ],
      [
        "a",
        "w"
      ],
      [
        "Ġs",
        "eries"
      ],
      [
        "at",
        "ing"
      ],
      [
        "en",
        "er"
      ],
      [
        "âĢ",
        "Ķ"
      ],
      [
        "Ġgiv",
        "en"
      ],
      [
        "Ġm",
        "agnet"
      ],
      [
        "Ġ",
        "le"
      ],
      [
        "Ġ1",
        "1"
      ],
      [
        "Ġin",
        "duct"
      ],
      [
        "act",
        "or"
      ],
      [
        "alcu",
        "late"
      ],
      [
        "Ġsupp",
        "ly"
      ],
      [
        "Ġa",
        "pp"
      ],
      [
        "or",
        "t"
      ],
      [
        "Ġ1",
        "4"
      ],
      [
        "Ġm",
        "e"
      ],
      [
        "Ġ",
        "Q"
      ],
      [
        "ĠÎ",
        "¼"
      ],
      [
        "3",
        "0"
      ],
      [
        "Ġ2",
        "5"
      ],
      [
        "m",
        "s"
      ],
      [
        "ĠI",
        "f"
      ],
      [
        "ech",
        "n"
      ],
      [
        "ĠÎ",
        "¸"
      ],
      [
        "at",
        "ed"
      ],
      [
        "Ġfl",
        "ux"
      ],
      [
        "Ġf",
        "requ"
      ],
      [
        "Ġw",
        "ill"
      ],
      [
        "st",
        "ant"
      ],
      [
        "re",
        "e"
      ],
      [
        "Ġresist",
        "or"
      ],
      [
        "ct",
        "ion"
      ],
      [
        "st",
        "r"
      ],
      [
        "ĠÏ",
        "Ĩ"
      ],
      [
        "Ġ",
        "un"
      ],
      [
        "Ġ1",
        "3"
      ],
      [
        "ĠT",
        "echn"
      ],
      [
        "Ġt",
        "erm"
      ],
      [
        "1",
        "5"
      ],
      [
        "o",
        "us"
      ],
      [
        "ĠâĢ",
        "ĵ"
      ],
      [
        "v",
        "ing"
      ],
      [
        "..",
        "."
      ],
      [
        "Ġh",
        "ave"
      ],
      [
        "li",
        "ed"
      ],
      [
        "in",
        "al"
      ],
      [
        "ol",
        "o"
      ],
      [
        "ic",
        "al"
      ],
      [
        "o",
        "ul"
      ],
      [
        "t",
        "h"
      ],
      [
        "Ġpar",
        "allel"
      ],
      [
        "1",
        "4"
      ],
      [
        "olo",
        "gy"
      ],
      [
        "ig",
        "h"
      ],
      [
        "s",
        "e"
      ],
      [
        "ĠTechn",
        "ology"
      ],
      [
        "Ġb",
        "atter"
      ],
      [
        "Ġp",
        "l"
      ],
      [
        "Ġi",
        "mp"
      ],
      [
        "ec",
        "ond"
      ],
      [
        "a",
        "y"
      ],
      [
        "Ġcon",
        "s"
      ],
      [
        "o",
        "ve"
      ],
      [
        "Ġon",
        "e"
      ],
      [
        "t",
        "her"
      ],
      [
        "Ġn",
        "ot"
      ],
      [
        "ect",
        "or"
      ],
      [
        "p",
        "en"
      ],
      [
        "Ġthe",
        "n"
      ],
      [
        "oul",
        "d"
      ],
      [
        "Ġcurrent",
        "s"
      ],
      [
        "el",
        "l"
      ],
      [
        "âĪĴ",
        "âĪĴ"
      ],
      [
        "ĠA",
        "s"
      ],
      [
        "ĠF",
        "or"
      ],
      [
        "Ġd",
        "is"
      ],
      [
        "Ġw",
        "at"
      ],
      [
        "he",
        "re"
      ],
      [
        "00",
        "0"
      ],
      [
        "Ġ",
        "/"
      ],
      [
        "Ġs",
        "p"
      ],
      [
        "Ġp",
        "er"
      ],
      [
        "ĠT",
        "h"
      ],
      [
        "Ġf",
        "actor"
      ],
      [
        "ter",
        "n"
      ],
      [
        "Ġdi",
        "re"
      ],
      [
        "at",
        "ive"
      ],
      [
        "du",
        "ced"
      ],
      [
        "Ï",
        "ī"
      ],
      [
        "am",
        "e"
      ],
      [
        "Ġt",
        "ak"
      ],
      [
        "1",
        "6"
      ],
      [
        "âĢ",
        "²"
      ],
      [
        "ar",
        "y"
      ],
      [
        "ĠE",
        "lectrical"
      ],
      [
        "Ġf",
        "ind"
      ],
      [
        "at",
        "es"
      ],
      [
        "etw",
        "ork"
      ],
      [
        "st",
        "e"
      ],
      [
        "a",
        "ble"
      ],
      [
        ")",
        ","
      ],
      [
        "as",
        "s"
      ],
      [
        "ed",
        "ance"
      ],
      [
        "Ġ",
        "..."
      ],
      [
        "Ġ3",
        "0"
      ],
      [
        "i",
        "p"
      ],
      [
        "h",
        "ase"
      ],
      [
        "Ġ",
        "G"
      ],
      [
        "Ġl",
        "ine"
      ],
      [
        "im",
        "um"
      ],
      [
        "ent",
        "ial"
      ],
      [
        "Ġfrequ",
        "ency"
      ],
      [
        "Ġ",
        "K"
      ],
      [
        "Ġma",
        "x"
      ],
      [
        "Ġâ",
        "ŀ£"
      ],
      [
        "âŀ£âŀ£",
        "âŀ£âŀ£"
      ],
      [
        "Ġâŀ£",
        "âŀ£âŀ£âŀ£âŀ£"
      ],
      [
        "s",
        "o"
      ],
      [
        "Ġin",
        "t"
      ],
      [
        "or",
        "m"
      ],
      [
        "t",
        "al"
      ],
      [
        "Ġs",
        "ame"
      ],
      [
        "Ġc",
        "m"
      ],
      [
        "l",
        "ow"
      ],
      [
        "Ġf",
        "i"
      ],
      [
        "ĠÏ",
        "ī"
      ],
      [
        "Ġs",
        "econd"
      ],
      [
        "str",
        "um"
      ],
      [
        "an",
        "d"
      ],
      [
        "Ġv",
        "ector"
      ],
      [
        "Ġbatter",
        "y"
      ],
      [
        "Ġo",
        "h"
      ],
      [
        "i",
        "f"
      ],
      [
        "Ġo",
        "ther"
      ],
      [
        "Ġab",
        "ove"
      ],
      [
        "Ġre",
        "p"
      ],
      [
        "ĠC",
        "alculate"
      ],
      [
        "Ġco",
        "m"
      ],
      [
        "Ġbe",
        "c"
      ],
      [
        "Ġp",
        "osit"
      ],
      [
        "ĠN",
        "ow"
      ],
      [
        "y",
        "ste"
      ],
      [
        "Î",
        "¼"
      ],
      [
        "Ġa",
        "mp"
      ],
      [
        "iv",
        "al"
      ],
      [
        "Ġto",
        "tal"
      ],
      [
        "el",
        "d"
      ],
      [
        "Ġimp",
        "edance"
      ],
      [
        "ur",
        "n"
      ],
      [
        "o",
        "p"
      ],
      [
        "ĠF",
        "ind"
      ],
      [
        "g",
        "ing"
      ],
      [
        "ival",
        "ent"
      ],
      [
        "ĠA",
        "l"
      ],
      [
        "ff",
        "e"
      ],
      [
        "Ġt",
        "im"
      ],
      [
        "o",
        "und"
      ],
      [
        "Ġterm",
        "inal"
      ],
      [
        "ii",
        "i"
      ],
      [
        "ĠÏ",
        "Ģ"
      ],
      [
        "1",
        "8"
      ],
      [
        "Ġco",
        "mp"
      ],
      [
        "ul",
        "t"
      ],
      [
        "Ġm",
        "et"
      ],
      [
        "ĠÎ",
        "µ"
      ],
      [
        "g",
        "le"
      ],
      [
        "Ġ",
        "z"
      ],
      [
        "ĠA",
        "B"
      ],
      [
        "E",
        "lect"
      ],
      [
        "b",
        "er"
      ],
      [
        "Ġw",
        "here"
      ],
      [
        "ad",
        "ing"
      ],
      [
        "ation",
        "s"
      ],
      [
        ".",
        ")"
      ],
      [
        "ren",
        "ce"
      ],
      [
        "Ġequ",
        "al"
      ],
      [
        "ot",
        "ential"
      ],
      [
        "Ġ1",
        "6"
      ],
      [
        "d",
        "e"
      ],
      [
        "Ġo",
        "ut"
      ],
      [
        "Ġ",
        "ener"
      ],
      [
        "4",
        "0"
      ],
      [
        "p",
        "er"
      ],
      [
        "Ġ6",
        "0"
      ],
      [
        "Ġwat",
        "t"
      ],
      [
        "p",
        "hase"
      ],
      [
        "Ġth",
        "ree"
      ],
      [
        "Ġus",
        "ed"
      ],
      [
        "Ġener",
        "gy"
      ],
      [
        "al",
        "l"
      ],
      [
        "Ġvalu",
        "es"
      ],
      [
        "Ġg",
        "et"
      ],
      [
        "Ï",
        "Ĩ"
      ],
      [
        "Ġinduct",
        "ance"
      ],
      [
        "Ġfl",
        "ow"
      ],
      [
        "d",
        "s"
      ],
      [
        "Ġcon",
        "stant"
      ],
      [
        "5",
        "0"
      ],
      [
        "ĠC",
        "ircuit"
      ],
      [
        "Ġdi",
        "ffe"
      ],
      [
        "Ġmax",
        "imum"
      ],
      [
        "Ġ1",
        "8"
      ],
      [
        "at",
        "ure"
      ],
      [
        "Ġb",
        "ran"
      ],
      [
        "Ġs",
        "een"
      ],
      [
        "Ġi",
        "f"
      ],
      [
        "ran",
        "s"
      ],
      [
        "p",
        "ect"
      ],
      [
        "Ġ",
        ","
      ],
      [
        "Ġin",
        "strum"
      ],
      [
        "as",
        "ure"
      ],
      [
        "Ġchar",
        "ge"
      ],
      [
        "Ġc",
        "ase"
      ],
      [
        "a",
        "ce"
      ],
      [
        "Ġk",
        "W"
      ],
      [
        "Ġ",
        "he"
      ],
      [
        "Ġequ",
        "ivalent"
      ],
      [
        "ir",
        "on"
      ],
      [
        "Ġcon",
        "duct"
      ],
      [
        "os",
        "e"
      ],
      [
        "u",
        "al"
      ],
      [
        "ĠC",
        "urrent"
      ],
      [
        "ĠP",
        "ower"
      ],
      [
        "Ġapp",
        "lied"
      ],
      [
        "e",
        "re"
      ],
      [
        "t",
        "ain"
      ],
      [
        "Ġm",
        "o"
      ],
      [
        "ro",
        "p"
      ],
      [
        "1",
        "3"
      ],
      [
        "Ġa",
        "d"
      ],
      [
        "en",
        "sity"
      ],
      [
        "er",
        "sity"
      ],
      [
        "Ġde",
        "f"
      ],
      [
        "Ġtim",
        "e"
      ],
      [
        "ag",
        "es"
      ],
      [
        "1",
        "9"
      ],
      [
        "Ġfi",
        "eld"
      ],
      [
        "at",
        "er"
      ],
      [
        "Ġne",
        "g"
      ],
      [
        "Ġre",
        "l"
      ],
      [
        "Ġe",
        "lectric"
      ],
      [
        "Ġma",
        "y"
      ],
      [
        "ĠUniv",
        "ersity"
      ],
      [
        "Ġc",
        "ell"
      ],
      [
        "r",
        "aw"
      ],
      [
        "r",
        "am"
      ],
      [
        "Ġn",
        "etwork"
      ],
      [
        "u",
        "e"
      ],
      [
        "eter",
        "m"
      ],
      [
        "al",
        "ance"
      ],
      [
        "ion",
        "s"
      ],
      [
        "ĠW",
        "hen"
      ],
      [
        "Ġfor",
        "m"
      ],
      [
        "Ġ",
        "J"
      ],
      [
        "in",
        "ce"
      ],
      [
        "ĠTh",
        "is"
      ],
      [
        "Ġdire",
        "ction"
      ],
      [
        "a",
        "us"
      ],
      [
        "Ġs",
        "e"
      ],
      [
        "Ġan",
        "gle"
      ],
      [
        "igh",
        "t"
      ],
      [
        "Ġres",
        "pect"
      ],
      [
        "Ġre",
        "act"
      ],
      [
        "ĠS",
        "ince"
      ],
      [
        "2",
        "4"
      ],
      [
        "Ġa",
        "ct"
      ],
      [
        "Ġre",
        "qu"
      ],
      [
        "ĠS",
        "u"
      ],
      [
        "g",
        "th"
      ],
      [
        "Ġmagnet",
        "ic"
      ],
      [
        "3",
        "6"
      ],
      [
        "h",
        "od"
      ],
      [
        "Î",
        "¸"
      ],
      [
        "c",
        "on"
      ],
      [
        "Ġthe",
        "re"
      ],
      [
        "er",
        "o"
      ],
      [
        "ire",
        "d"
      ],
      [
        "re",
        "ss"
      ],
      [
        "ĠE",
        "n"
      ],
      [
        "1",
        "7"
      ],
      [
        "Ġp",
        "otential"
      ],
      [
        "Ġex",
        "p"
      ],
      [
        "ar",
        "i"
      ],
      [
        "m",
        "ent"
      ],
      [
        "Ġcapacit",
        "ance"
      ],
      [
        "Ġterminal",
        "s"
      ],
      [
        "ff",
        "ic"
      ],
      [
        "Ġin",
        "c"
      ],
      [
        "urn",
        "s"
      ],
      [
        "Ġthe",
        "ir"
      ],
      [
        "Ġfor",
        "ce"
      ],
      [
        "il",
        "ar"
      ],
      [
        "id",
        "e"
      ],
      [
        "Ġz",
        "ero"
      ],
      [
        "ol",
        "low"
      ],
      [
        "ĠâĢ",
        "ĺ"
      ],
      [
        "Ġl",
        "ag"
      ],
      [
        "qu",
        "e"
      ],
      [
        "im",
        "ilar"
      ],
      [
        "Ġposit",
        "ive"
      ],
      [
        "Ġ",
        "qu"
      ],
      [
        "3",
        "2"
      ],
      [
        "Ġtak",
        "en"
      ],
      [
        "Ġint",
        "o"
      ],
      [
        "c",
        "al"
      ],
      [
        "Ġal",
        "so"
      ],
      [
        "Ġst",
        "ar"
      ],
      [
        "Ġan",
        "y"
      ],
      [
        "aus",
        "e"
      ],
      [
        "Ġrequ",
        "ired"
      ],
      [
        "Ġa",
        "r"
      ],
      [
        "Ġw",
        "ould"
      ],
      [
        "Ġd",
        "rop"
      ],
      [
        "Ġ12",
        "0"
      ],
      [
        "v",
        "en"
      ],
      [
        "ĠA",
        "n"
      ],
      [
        "ion",
        "al"
      ],
      [
        "Ġresistance",
        "s"
      ],
      [
        "Ġbran",
        "ch"
      ],
      [
        "a",
        "ving"
      ],
      [
        "r",
        "i"
      ],
      [
        "Ġbe",
        "en"
      ],
      [
        "ore",
        "m"
      ],
      [
        "ffic",
        "i"
      ],
      [
        "ĠÎ",
        "Ķ"
      ],
      [
        "Ġâİ",
        "¢"
      ],
      [
        "p",
        "ut"
      ],
      [
        "Î©Î©",
        "Î©Î©"
      ],
      [
        "Ġ4",
        "0"
      ],
      [
        "Ġ",
        "iron"
      ],
      [
        "Ġt",
        "rans"
      ],
      [
        "ag",
        "ram"
      ],
      [
        "ĠH",
        "z"
      ],
      [
        "Ġpl",
        "ates"
      ],
      [
        "a",
        "b"
      ],
      [
        "u",
        "p"
      ],
      [
        "v",
        "i"
      ],
      [
        "or",
        "s"
      ],
      [
        "r",
        "t"
      ],
      [
        "Ġf",
        "ollow"
      ],
      [
        "g",
        "ed"
      ],
      [
        "Ġ1",
        "7"
      ],
      [
        "a",
        "mp"
      ],
      [
        "it",
        "t"
      ],
      [
        "e",
        "mp"
      ],
      [
        "Ġs",
        "o"
      ],
      [
        "an",
        "ge"
      ],
      [
        "ĠC",
        "on"
      ],
      [
        "Ġ19",
        "9"
      ],
      [
        "d",
        "it"
      ],
      [
        "Ġrep",
        "res"
      ],
      [
        "l",
        "o"
      ],
      [
        "Ġs",
        "yste"
      ],
      [
        "ĠW",
        "h"
      ],
      [
        "in",
        "ed"
      ],
      [
        "or",
        "que"
      ],
      [
        "Ġn",
        "od"
      ],
      [
        "4",
        "5"
      ],
      [
        "Ġv",
        "ari"
      ],
      [
        "ĠÎ©",
        "Î©Î©Î©Î©"
      ],
      [
        "Ġme",
        "asure"
      ],
      [
        "6",
        "0"
      ],
      [
        "Ġ",
        "ro"
      ],
      [
        "Ġo",
        "b"
      ],
      [
        "Ġh",
        "aving"
      ],
      [
        "ar",
        "ge"
      ],
      [
        "t",
        "r"
      ],
      [
        "Ġdi",
        "agram"
      ],
      [
        "7",
        "5"
      ],
      [
        "Ġa",
        "ir"
      ],
      [
        "Ġb",
        "ut"
      ],
      [
        "Ġf",
        "ound"
      ],
      [
        "Ġal",
        "tern"
      ],
      [
        "1",
        "00"
      ],
      [
        "ĠW",
        "b"
      ],
      [
        "1",
        "1"
      ],
      [
        "c",
        "le"
      ],
      [
        "Ġre",
        "ading"
      ],
      [
        "ĠÎ",
        "¦"
      ],
      [
        "f",
        "orm"
      ],
      [
        "Ġ...",
        "("
      ],
      [
        "Ġneg",
        "ative"
      ],
      [
        "eterm",
        "ine"
      ],
      [
        "m",
        "on"
      ],
      [
        "Ġ",
        "x"
      ],
      [
        "Ġoh",
        "ms"
      ],
      [
        "is",
        "e"
      ],
      [
        "Ġp",
        "r"
      ],
      [
        "Ġcom",
        "b"
      ],
      [
        "emp",
        "er"
      ],
      [
        "Ġo",
        "ver"
      ],
      [
        "Ġd",
        "t"
      ],
      [
        "Ġd",
        "ensity"
      ],
      [
        "ist",
        "ance"
      ],
      [
        "Ġvolt",
        "ages"
      ],
      [
        "ot",
        "al"
      ],
      [
        "id",
        "er"
      ],
      [
        "Ġa",
        "m"
      ],
      [
        "re",
        "as"
      ],
      [
        "Ġ2",
        "3"
      ],
      [
        "Ġd",
        "ue"
      ],
      [
        "ĠT",
        "otal"
      ],
      [
        "ĠÎ",
        "±"
      ],
      [
        "Ġn",
        "um"
      ],
      [
        "ĠL",
        "et"
      ],
      [
        "om",
        "b"
      ],
      [
        "emper",
        "ature"
      ],
      [
        "Ġinstrum",
        "ent"
      ],
      [
        "Ġcons",
        "ist"
      ],
      [
        "ic",
        "k"
      ],
      [
        "Ġâİ",
        "Ľ"
      ],
      [
        "Ġle",
        "ad"
      ],
      [
        "Ġdef",
        "lect"
      ],
      [
        "alance",
        "d"
      ],
      [
        "Ġre",
        "m"
      ],
      [
        "2",
        "2"
      ],
      [
        "3",
        "5"
      ],
      [
        "t",
        "ed"
      ],
      [
        "on",
        "g"
      ],
      [
        "Ġon",
        "ly"
      ],
      [
        "Ġcoil",
        "s"
      ],
      [
        "Ġme",
        "an"
      ],
      [
        "F",
        "ig"
      ],
      [
        "Ġt",
        "an"
      ],
      [
        "Ġt",
        "urns"
      ],
      [
        "Ġare",
        "a"
      ],
      [
        "ot",
        "h"
      ],
      [
        "Ġk",
        "V"
      ],
      [
        "ĠR",
        "es"
      ],
      [
        "Ġ4",
        "00"
      ],
      [
        "Ġâİ",
        "ľ"
      ],
      [
        "âĪł",
        "âĪł"
      ],
      [
        "Ġbec",
        "ause"
      ],
      [
        "Ġsyste",
        "m"
      ],
      [
        "Ġ",
        "?"
      ],
      [
        "Ġsu",
        "ch"
      ],
      [
        "Ġsh",
        "ould"
      ],
      [
        "6",
        "6"
      ],
      [
        "u",
        "st"
      ],
      [
        "y",
        "p"
      ],
      [
        "er",
        "s"
      ],
      [
        "Ġp",
        "erm"
      ],
      [
        "2",
        "8"
      ],
      [
        "Ġw",
        "ave"
      ],
      [
        "Ġres",
        "ult"
      ],
      [
        "Ġp",
        "ass"
      ],
      [
        "ot",
        "or"
      ],
      [
        "Ġ9",
        "0"
      ],
      [
        "Ġwatt",
        "meter"
      ],
      [
        "Ġt",
        "orque"
      ],
      [
        "Ġg",
        "ener"
      ],
      [
        "Ġâİ",
        "Ł"
      ],
      [
        "pen",
        "d"
      ],
      [
        "9",
        "0"
      ],
      [
        "n",
        "own"
      ],
      [
        "Ġ",
        "y"
      ],
      [
        "ff",
        "ect"
      ],
      [
        "Ġc",
        "ar"
      ],
      [
        "Ġ",
        "en"
      ],
      [
        "it",
        "u"
      ],
      [
        "Ġd",
        "raw"
      ],
      [
        "um",
        "ed"
      ],
      [
        "Ġ100",
        "0"
      ],
      [
        "ater",
        "ial"
      ],
      [
        "ir",
        "st"
      ],
      [
        "H",
        "z"
      ],
      [
        "v",
        "ed"
      ],
      [
        "Ġthe",
        "se"
      ],
      [
        "Ġ2",
        "4"
      ],
      [
        "Ġm",
        "m"
      ],
      [
        "3",
        "3"
      ],
      [
        "ur",
        "ing"
      ],
      [
        "Ġre",
        "f"
      ],
      [
        "âİ",
        "¥"
      ],
      [
        "en",
        "gth"
      ],
      [
        "Ġreact",
        "ance"
      ],
      [
        "ĠEn",
        "g"
      ],
      [
        "Ġn",
        "o"
      ],
      [
        "ver",
        "age"
      ],
      [
        "3",
        "4"
      ],
      [
        "Ġres",
        "on"
      ],
      [
        "i",
        "e"
      ],
      [
        "Ġt",
        "emperature"
      ],
      [
        "an",
        "e"
      ],
      [
        "Î¼",
        "Î¼"
      ],
      [
        "Ġcomp",
        "on"
      ],
      [
        "Ġcircuit",
        "s"
      ],
      [
        "ver",
        "s"
      ],
      [
        "r",
        "id"
      ],
      [
        "Ġc",
        "alculate"
      ],
      [
        "Ġdiffe",
        "rence"
      ],
      [
        "con",
        "nected"
      ],
      [
        "Ġb",
        "oth"
      ],
      [
        "ĠA",
        "T"
      ],
      [
        "ig",
        "n"
      ],
      [
        "ul",
        "ar"
      ],
      [
        "vi",
        "ous"
      ],
      [
        "Ġâİ",
        "Ŀ"
      ],
      [
        "Ġbec",
        "om"
      ],
      [
        "c",
        "ircuit"
      ],
      [
        "k",
        "e"
      ],
      [
        "t",
        "a"
      ],
      [
        "Î",
        "µ"
      ],
      [
        "Ġsh",
        "ort"
      ],
      [
        "Ġnum",
        "ber"
      ],
      [
        "2",
        "6"
      ],
      [
        "i",
        "o"
      ],
      [
        "Ġ",
        "hen"
      ],
      [
        "Ġm",
        "aterial"
      ],
      [
        "Ġaltern",
        "ating"
      ],
      [
        "a",
        "ced"
      ],
      [
        "y",
        "cle"
      ],
      [
        "Ġ",
        "und"
      ],
      [
        "at",
        "or"
      ],
      [
        "Ġlo",
        "ss"
      ],
      [
        "ĠCircuit",
        "s"
      ],
      [
        "Ġrespect",
        "ive"
      ],
      [
        "Ġm",
        "eter"
      ],
      [
        "Ġâİ",
        "ł"
      ],
      [
        "a",
        "v"
      ],
      [
        "imilar",
        "ly"
      ],
      [
        "t",
        "e"
      ],
      [
        "Ġw",
        "ire"
      ],
      [
        "ĠâĪ",
        "«"
      ],
      [
        "ĠA",
        "rt"
      ],
      [
        "ĠThe",
        "ven"
      ],
      [
        "Ġph",
        "as"
      ],
      [
        "tern",
        "al"
      ],
      [
        "Ġfollow",
        "ing"
      ],
      [
        "p",
        "ur"
      ],
      [
        "ÃĹ",
        "ÃĹ"
      ],
      [
        "Ġl",
        "ength"
      ],
      [
        "Ġr",
        "ad"
      ],
      [
        "Ġequ",
        "ation"
      ],
      [
        "âĪł",
        "âĪĴ"
      ],
      [
        "r",
        "y"
      ],
      [
        "Ġthe",
        "orem"
      ],
      [
        "Ġl",
        "in"
      ],
      [
        "du",
        "ce"
      ],
      [
        "ĠkV",
        "A"
      ],
      [
        "2",
        "3"
      ],
      [
        "Ġin",
        "duced"
      ],
      [
        "Ġh",
        "igh"
      ],
      [
        "Ġâİ",
        "ŀ"
      ],
      [
        "Ġconduct",
        "or"
      ],
      [
        "ĠTheven",
        "in"
      ],
      [
        "ĠC",
        "o"
      ],
      [
        "ĠWh",
        "at"
      ],
      [
        "Ġ",
        "|"
      ],
      [
        "Ġ4",
        "5"
      ],
      [
        "Ġâİ",
        "¡"
      ],
      [
        "Ġst",
        "e"
      ],
      [
        "Ġoh",
        "m"
      ],
      [
        ")",
        "]"
      ],
      [
        "m",
        "ents"
      ],
      [
        "u",
        "le"
      ],
      [
        "un",
        "t"
      ],
      [
        "Ġpar",
        "t"
      ],
      [
        "r",
        "al"
      ],
      [
        "Ġp",
        "late"
      ],
      [
        "es",
        "t"
      ],
      [
        "Ġ3",
        "6"
      ],
      [
        "ĠS",
        "imilarly"
      ],
      [
        "el",
        "ta"
      ],
      [
        "Ġmet",
        "hod"
      ],
      [
        "Ġund",
        "er"
      ],
      [
        "c",
        "os"
      ],
      [
        "i",
        "um"
      ],
      [
        "Ġal",
        "l"
      ],
      [
        "5",
        "4"
      ],
      [
        "p",
        "ar"
      ],
      [
        "Ġt",
        "yp"
      ],
      [
        "Ġo",
        "pen"
      ],
      [
        "at",
        "h"
      ],
      [
        "Ġf",
        "ul"
      ],
      [
        "Ġk",
        "g"
      ],
      [
        "Ġnod",
        "e"
      ],
      [
        "il",
        "ter"
      ],
      [
        "Ġpro",
        "p"
      ],
      [
        "Ġsupp",
        "lied"
      ],
      [
        "e",
        "rence"
      ],
      [
        "Ġ",
        "up"
      ],
      [
        "Ġf",
        "irst"
      ],
      [
        "Ġco",
        "mple"
      ],
      [
        "ĠD",
        "etermine"
      ],
      [
        "ĠEng",
        "g"
      ],
      [
        "o",
        "id"
      ],
      [
        "y",
        "s"
      ],
      [
        "ĠV",
        "olt"
      ],
      [
        "Ġexp",
        "ress"
      ],
      [
        "g",
        "es"
      ],
      [
        "Ġe",
        "lectr"
      ],
      [
        "âĢ",
        "ĵ"
      ],
      [
        "Ïī",
        "t"
      ],
      [
        "e",
        "ver"
      ],
      [
        "Ġpoint",
        "s"
      ],
      [
        "Ġmo",
        "ving"
      ],
      [
        "itu",
        "de"
      ],
      [
        "Ġs",
        "ur"
      ],
      [
        "en",
        "s"
      ],
      [
        "Ġd",
        "ec"
      ],
      [
        "ag",
        "pur"
      ],
      [
        "Ġpro",
        "duced"
      ],
      [
        "Ġc",
        "or"
      ],
      [
        "Ġ[",
        "("
      ],
      [
        "ĠO",
        "b"
      ],
      [
        "Ġin",
        "d"
      ],
      [
        "Ġs",
        "m"
      ],
      [
        "Ġsource",
        "s"
      ],
      [
        "a",
        "re"
      ],
      [
        "at",
        "io"
      ],
      [
        "Ġj",
        "o"
      ],
      [
        "Ġâİ",
        "¥"
      ],
      [
        "enc",
        "ies"
      ],
      [
        "2",
        "00"
      ],
      [
        "Ġd",
        "o"
      ],
      [
        "Ġ3",
        "1"
      ],
      [
        "Ġ5",
        "00"
      ],
      [
        "4",
        "4"
      ],
      [
        "c",
        "he"
      ],
      [
        "Ġin",
        "stant"
      ],
      [
        "ĠA",
        "t"
      ],
      [
        "Ġv",
        "er"
      ],
      [
        "Ġvolt",
        "s"
      ],
      [
        "ĠAl",
        "l"
      ],
      [
        "b",
        "r"
      ],
      [
        "c",
        "o"
      ],
      [
        "Ġo",
        "pp"
      ],
      [
        "Ġp",
        "ath"
      ],
      [
        "Ġw",
        "ork"
      ],
      [
        "iv",
        "ity"
      ],
      [
        "Ġprop",
        "ort"
      ],
      [
        ".",
        ","
      ],
      [
        "0",
        "7"
      ],
      [
        "4",
        "3"
      ],
      [
        "ic",
        "s"
      ],
      [
        "pp",
        "er"
      ],
      [
        "..",
        ".."
      ],
      [
        "Ġ25",
        "0"
      ],
      [
        "Ġob",
        "tain"
      ],
      [
        "Ġsm",
        "all"
      ],
      [
        "/",
        "("
      ],
      [
        "Ġe",
        "lect"
      ],
      [
        "ĠS",
        "t"
      ],
      [
        "om",
        "eter"
      ],
      [
        "ĠÎ¼",
        "F"
      ],
      [
        "Ġun",
        "it"
      ],
      [
        "âĪĴâĪĴ",
        "âĪĴâĪĴ"
      ],
      [
        "Ġflow",
        "ing"
      ],
      [
        "Ġconsist",
        "s"
      ],
      [
        "o",
        "le"
      ],
      [
        "Ġc",
        "l"
      ],
      [
        "Ġs",
        "i"
      ],
      [
        "Ġm",
        "agn"
      ],
      [
        "ing",
        "le"
      ],
      [
        "ĠH",
        "ow"
      ],
      [
        "ĠN",
        "o"
      ],
      [
        "Ġdis",
        "ch"
      ],
      [
        "Ġdire",
        "ct"
      ],
      [
        "Ġdiffe",
        "rent"
      ],
      [
        "Ġam",
        "meter"
      ],
      [
        "2",
        "1"
      ],
      [
        "Ġvolt",
        "meter"
      ],
      [
        "ore",
        "d"
      ],
      [
        "Ġro",
        "t"
      ],
      [
        "t",
        "ing"
      ],
      [
        "in",
        "c"
      ],
      [
        "Ġs",
        "um"
      ],
      [
        "ĠL",
        "aw"
      ],
      [
        "Ġcomb",
        "in"
      ],
      [
        "Ġ(",
        "âĪĴ"
      ],
      [
        "Ġin",
        "s"
      ],
      [
        "Ġe",
        "ffect"
      ],
      [
        "ad",
        "e"
      ],
      [
        "Ġ200",
        "3"
      ],
      [
        "Ġus",
        "ing"
      ],
      [
        "Ġrepres",
        "ent"
      ],
      [
        "4",
        "7"
      ],
      [
        "9",
        "5"
      ],
      [
        "er",
        "r"
      ],
      [
        "ĠB",
        "C"
      ],
      [
        "alle",
        "d"
      ],
      [
        "Ġrespective",
        "ly"
      ],
      [
        "3",
        "7"
      ],
      [
        "d",
        "ing"
      ],
      [
        "f",
        "ter"
      ],
      [
        "Ġcon",
        "nect"
      ],
      [
        "cal",
        "e"
      ],
      [
        "Ġdeflect",
        "ion"
      ],
      [
        "e",
        "lectric"
      ],
      [
        "ĠM",
        "e"
      ],
      [
        "Ġinc",
        "reas"
      ],
      [
        "Ġref",
        "erence"
      ],
      [
        "vious",
        "ly"
      ],
      [
        "Ġa",
        "verage"
      ],
      [
        "Ġo",
        "per"
      ],
      [
        "Ġ2",
        "30"
      ],
      [
        "on",
        "e"
      ],
      [
        "al",
        "f"
      ],
      [
        "rid",
        "ge"
      ],
      [
        "Ġbecom",
        "es"
      ],
      [
        "Ġhen",
        "ce"
      ],
      [
        "c",
        "k"
      ],
      [
        "Ġs",
        "ingle"
      ],
      [
        "Ġ2",
        "2"
      ],
      [
        "Ġbe",
        "ing"
      ],
      [
        "ly",
        "ing"
      ],
      [
        "p",
        "t"
      ],
      [
        "Ġ",
        "err"
      ],
      [
        "Ġa",
        "ss"
      ],
      [
        "Ġqu",
        "ant"
      ],
      [
        "ane",
        "ous"
      ],
      [
        "4",
        "8"
      ],
      [
        "5",
        "3"
      ],
      [
        "f",
        "ace"
      ],
      [
        "Ġthe",
        "y"
      ],
      [
        "ĠâĪ",
        "Ŀ"
      ],
      [
        "ar",
        "mon"
      ],
      [
        "os",
        "ed"
      ],
      [
        "Ġlo",
        "op"
      ],
      [
        "Ġrel",
        "ative"
      ],
      [
        "Ġproport",
        "ional"
      ],
      [
        "Ġc",
        "ur"
      ],
      [
        "ĠU",
        "s"
      ],
      [
        "in",
        "duct"
      ],
      [
        "Ġr",
        "atio"
      ],
      [
        "Ġ8",
        "0"
      ],
      [
        "agnet",
        "ic"
      ],
      [
        "Ġchar",
        "ging"
      ],
      [
        "ĠAl",
        "so"
      ],
      [
        "4",
        "2"
      ],
      [
        "Ġm",
        "otor"
      ],
      [
        "Ġl",
        "aw"
      ],
      [
        "Ġcon",
        "dit"
      ],
      [
        "el",
        "f"
      ],
      [
        "Ġout",
        "put"
      ],
      [
        "ffici",
        "ent"
      ],
      [
        "Ġtyp",
        "e"
      ],
      [
        "5",
        "2"
      ],
      [
        "Ġth",
        "an"
      ],
      [
        "i",
        "ble"
      ],
      [
        "n",
        "e"
      ],
      [
        "r",
        "ing"
      ],
      [
        "ce",
        "ss"
      ],
      [
        "Ġk",
        "nown"
      ],
      [
        "Ġ",
        "*"
      ],
      [
        "Ġc",
        "alled"
      ],
      [
        "Ġre",
        "vers"
      ],
      [
        "ol",
        "y"
      ],
      [
        "ĠW",
        "e"
      ],
      [
        "Ġch",
        "ange"
      ],
      [
        "ical",
        "ly"
      ],
      [
        "Ġdraw",
        "n"
      ],
      [
        "Ġsur",
        "face"
      ],
      [
        "0",
        "5"
      ],
      [
        "l",
        "ic"
      ],
      [
        "Ġc",
        "ent"
      ],
      [
        "ar",
        "d"
      ],
      [
        "Ġpro",
        "duce"
      ],
      [
        "tr",
        "ol"
      ],
      [
        ")",
        "="
      ],
      [
        "Ġm",
        "ade"
      ],
      [
        "ĠT",
        "wo"
      ],
      [
        "Ġl",
        "ow"
      ],
      [
        "Ġtrans",
        "form"
      ],
      [
        "ys",
        "is"
      ],
      [
        "o",
        "ut"
      ],
      [
        "Ġt",
        "r"
      ],
      [
        "Ġb",
        "alanced"
      ],
      [
        "Â°",
        "."
      ],
      [
        "ind",
        "ing"
      ],
      [
        "Ġs",
        "w"
      ],
      [
        "Ġin",
        "ternal"
      ],
      [
        "Ġr",
        "ate"
      ],
      [
        "3",
        "1"
      ],
      [
        "Ġ2",
        "6"
      ],
      [
        "Ġd",
        "uring"
      ],
      [
        "Ġre",
        "v"
      ],
      [
        "ar",
        "allel"
      ],
      [
        "Ġfrequ",
        "encies"
      ],
      [
        "pend",
        "ent"
      ],
      [
        "a",
        "x"
      ],
      [
        "s",
        "in"
      ],
      [
        "Ġ10",
        "6"
      ],
      [
        "Ġn",
        "on"
      ],
      [
        "Ġinduct",
        "ive"
      ],
      [
        "Ġmeasure",
        "d"
      ],
      [
        "Ġful",
        "l"
      ],
      [
        "Ġind",
        "ic"
      ],
      [
        "h",
        "o"
      ],
      [
        "Ġs",
        "ol"
      ],
      [
        "ĠR",
        "e"
      ],
      [
        "ĠC",
        "apacit"
      ],
      [
        "Ġh",
        "alf"
      ],
      [
        "Ġsu",
        "b"
      ],
      [
        "Ġnot",
        "ed"
      ],
      [
        "Î",
        "±"
      ],
      [
        "es",
        "h"
      ],
      [
        "ĠâĪĴ",
        "âĪĴâĪĴâĪĴâĪĴ"
      ],
      [
        "Ġg",
        "r"
      ],
      [
        "Ġlo",
        "g"
      ],
      [
        "Ġ200",
        "2"
      ],
      [
        "Ġcons",
        "umed"
      ],
      [
        "ĠOb",
        "viously"
      ],
      [
        "ĠUs",
        "ing"
      ],
      [
        "2",
        "7"
      ],
      [
        "Ġc",
        "ycle"
      ],
      [
        "Ġr",
        "ing"
      ],
      [
        "Ġdi",
        "electric"
      ],
      [
        "Ġlag",
        "ging"
      ],
      [
        "Ġphas",
        "or"
      ],
      [
        "Ġmagn",
        "itude"
      ],
      [
        "5",
        "7"
      ],
      [
        "Ġ2",
        "1"
      ],
      [
        "Ġw",
        "inding"
      ],
      [
        "Ġre",
        "ad"
      ],
      [
        "Ġco",
        "ul"
      ],
      [
        "Ġco",
        "pper"
      ],
      [
        "Ġmagnet",
        "is"
      ],
      [
        "Ġwat",
        "er"
      ],
      [
        "2",
        "9"
      ],
      [
        "8",
        "5"
      ],
      [
        "d",
        "t"
      ],
      [
        "re",
        "ase"
      ],
      [
        "Ġs",
        "ign"
      ],
      [
        "Ġus",
        "e"
      ],
      [
        "12",
        "0"
      ],
      [
        "ual",
        "ly"
      ],
      [
        "Ġver",
        "y"
      ],
      [
        "Ġopp",
        "osit"
      ],
      [
        "ĠHow",
        "ever"
      ],
      [
        "4",
        "6"
      ],
      [
        "Ġc",
        "ross"
      ],
      [
        "es",
        "s"
      ],
      [
        "Ġg",
        "o"
      ],
      [
        "Ġresistor",
        "s"
      ],
      [
        "ĠRes",
        "istance"
      ],
      [
        "Ġlin",
        "es"
      ],
      [
        "i",
        "z"
      ],
      [
        "m",
        "et"
      ],
      [
        "u",
        "ct"
      ],
      [
        "um",
        "e"
      ],
      [
        "h",
        "m"
      ],
      [
        "m",
        "er"
      ],
      [
        "al",
        "ysis"
      ],
      [
        "le",
        "s"
      ],
      [
        "Ġe",
        "le"
      ],
      [
        "ĠN",
        "etwork"
      ],
      [
        "Ġgiv",
        "es"
      ],
      [
        "Ġdis",
        "c"
      ],
      [
        "ĠIn",
        "duct"
      ],
      [
        "Ġcompon",
        "ent"
      ],
      [
        "Ġcombin",
        "ation"
      ],
      [
        "3",
        "8"
      ],
      [
        "5",
        "5"
      ],
      [
        "v",
        "el"
      ],
      [
        "Ġd",
        "elta"
      ],
      [
        "Ġsecond",
        "ary"
      ],
      [
        "ĠkW",
        "h"
      ],
      [
        "Ġrad",
        "i"
      ],
      [
        "7",
        "8"
      ],
      [
        "Ĩ",
        "Ĵ"
      ],
      [
        "ro",
        "und"
      ],
      [
        "Ġequ",
        "ations"
      ],
      [
        "Ġposit",
        "ion"
      ],
      [
        "Ġreson",
        "ance"
      ],
      [
        "Ġthe",
        "m"
      ],
      [
        "it",
        "e"
      ],
      [
        "Ġm",
        "in"
      ],
      [
        "ut",
        "ral"
      ],
      [
        "Ġst",
        "ored"
      ],
      [
        "Ġinstrum",
        "ents"
      ],
      [
        "Ġobtain",
        "ed"
      ],
      [
        "6",
        "2"
      ],
      [
        "p",
        "osit"
      ],
      [
        "Ġf",
        "ilter"
      ],
      [
        "Ġd",
        "iv"
      ],
      [
        "Ġ5",
        "3"
      ],
      [
        "qu",
        "ence"
      ],
      [
        "Ġh",
        "armon"
      ],
      [
        "am",
        "eter"
      ],
      [
        "ffici",
        "ency"
      ],
      [
        "v",
        "es"
      ],
      [
        "it",
        "her"
      ],
      [
        "le",
        "d"
      ],
      [
        "Ġl",
        "i"
      ],
      [
        "ent",
        "al"
      ],
      [
        "il",
        "ity"
      ],
      [
        "ad",
        "y"
      ],
      [
        "Ġsh",
        "ow"
      ],
      [
        "ay",
        "s"
      ],
      [
        "Ġmean",
        "s"
      ],
      [
        "Ġo",
        "c"
      ],
      [
        "Ġ3",
        "2"
      ],
      [
        "ĠC",
        "D"
      ],
      [
        "3",
        "9"
      ],
      [
        "W",
        "b"
      ],
      [
        "d",
        "y"
      ],
      [
        "ĠF",
        "rom"
      ],
      [
        "ĠC",
        "h"
      ],
      [
        "ĠB",
        "y"
      ],
      [
        "ĠW",
        "ith"
      ],
      [
        "Ġar",
        "m"
      ],
      [
        "Ġerr",
        "or"
      ],
      [
        "Ġsw",
        "it"
      ],
      [
        "8",
        "6"
      ],
      [
        "d",
        "er"
      ],
      [
        "f",
        "t"
      ],
      [
        "ĠR",
        "Y"
      ],
      [
        "ond",
        "on"
      ],
      [
        "0",
        "2"
      ],
      [
        "8",
        "0"
      ],
      [
        "Ġ2",
        "40"
      ],
      [
        "Ġb",
        "ridge"
      ],
      [
        "ĠA",
        "pp"
      ],
      [
        "Ġre",
        "ct"
      ],
      [
        "ar",
        "n"
      ],
      [
        "om",
        "e"
      ],
      [
        "Ġ15",
        "0"
      ],
      [
        "ĠâĪł",
        "âĪĴ"
      ],
      [
        "Ġterm",
        "s"
      ],
      [
        "f",
        "ore"
      ],
      [
        "o",
        "ugh"
      ],
      [
        "p",
        "ond"
      ],
      [
        "Ġin",
        "put"
      ],
      [
        "ĠE",
        "q"
      ],
      [
        "un",
        "e"
      ],
      [
        "ĠP",
        "ro"
      ],
      [
        "âĢ²",
        "âĢ²"
      ],
      [
        "Ġrep",
        "l"
      ],
      [
        "6",
        "5"
      ],
      [
        "e",
        "fficient"
      ],
      [
        "ĠThe",
        "se"
      ],
      [
        "Ġcon",
        "t"
      ],
      [
        "Ġâİ",
        "£"
      ],
      [
        "âİ",
        "¦"
      ],
      [
        "Ġne",
        "utral"
      ],
      [
        "Ġchar",
        "ged"
      ],
      [
        "7",
        "2"
      ],
      [
        "e",
        "res"
      ],
      [
        "it",
        "ies"
      ],
      [
        "ĠE",
        "lect"
      ],
      [
        "ĠL",
        "o"
      ],
      [
        "res",
        "is"
      ],
      [
        "res",
        "pond"
      ],
      [
        "if",
        "ic"
      ],
      [
        "yste",
        "resis"
      ],
      [
        "Ġamp",
        "ere"
      ],
      [
        "Ġrepres",
        "ents"
      ],
      [
        "Ġquant",
        "ity"
      ],
      [
        "0",
        "8"
      ],
      [
        "g",
        "ap"
      ],
      [
        "i",
        "ent"
      ],
      [
        "Ġa",
        "fter"
      ],
      [
        "it",
        "ial"
      ],
      [
        "Ġm",
        "ust"
      ],
      [
        "ren",
        "gth"
      ],
      [
        "ĠE",
        "qu"
      ],
      [
        "Ġbe",
        "h"
      ],
      [
        "ĠM",
        "et"
      ],
      [
        "Ġresult",
        "ant"
      ],
      [
        "Ġopposit",
        "e"
      ],
      [
        "5",
        "00"
      ],
      [
        "s",
        "ect"
      ],
      [
        "Ġe",
        "ither"
      ],
      [
        "Ġâİ",
        "¤"
      ],
      [
        "âİ",
        "¤"
      ],
      [
        "Ġbatter",
        "ies"
      ],
      [
        "Ġimpedance",
        "s"
      ],
      [
        "Ġhe",
        "l"
      ],
      [
        "oid",
        "al"
      ],
      [
        "c",
        "ur"
      ],
      [
        "j",
        "ect"
      ],
      [
        "Ġ",
        "Â"
      ],
      [
        "re",
        "d"
      ],
      [
        "Ġl",
        "arge"
      ],
      [
        "ĠS",
        "um"
      ],
      [
        "Ġma",
        "in"
      ],
      [
        "Ġab",
        "s"
      ],
      [
        "Ġcell",
        "s"
      ],
      [
        "Ġrem",
        "ain"
      ],
      [
        "Ġelect",
        "ro"
      ],
      [
        "4",
        "00"
      ],
      [
        "m",
        "ical"
      ],
      [
        "an",
        "g"
      ],
      [
        "Ġe",
        "fficiency"
      ],
      [
        "us",
        "oidal"
      ],
      [
        "Ġact",
        "ive"
      ],
      [
        "Ġelectr",
        "on"
      ],
      [
        "c",
        "or"
      ],
      [
        "in",
        "ter"
      ],
      [
        "ce",
        "pt"
      ],
      [
        "ĠA",
        "C"
      ],
      [
        "Ġm",
        "ore"
      ],
      [
        "Ġl",
        "ong"
      ],
      [
        "Ġâİ",
        "¦"
      ],
      [
        "im",
        "ary"
      ],
      [
        "if",
        "orm"
      ],
      [
        "Ġinstant",
        "aneous"
      ],
      [
        "6",
        "8"
      ],
      [
        "9",
        "6"
      ],
      [
        "e",
        "g"
      ],
      [
        "Ġ",
        "ed"
      ],
      [
        "Ġh",
        "our"
      ],
      [
        "Ġun",
        "iform"
      ],
      [
        "N",
        "agpur"
      ],
      [
        "w",
        "ise"
      ],
      [
        "Ġm",
        "A"
      ],
      [
        "Ġcon",
        "trol"
      ],
      [
        "Ġsin",
        "usoidal"
      ],
      [
        "âİ",
        "£"
      ],
      [
        "Ġexpress",
        "ion"
      ],
      [
        "Ġbeh",
        "ind"
      ],
      [
        "6",
        "7"
      ],
      [
        "a",
        "il"
      ],
      [
        "Ġw",
        "ound"
      ],
      [
        "Ġe",
        "lectrical"
      ],
      [
        "as",
        "t"
      ],
      [
        "ĠP",
        "arallel"
      ],
      [
        "ac",
        "k"
      ],
      [
        "ĠVolt",
        "age"
      ],
      [
        "Ġcoul",
        "omb"
      ],
      [
        "5",
        "6"
      ],
      [
        "8",
        "7"
      ],
      [
        "i",
        "ce"
      ],
      [
        "x",
        "ed"
      ],
      [
        "y",
        "m"
      ],
      [
        "er",
        "gy"
      ],
      [
        "ol",
        "ar"
      ],
      [
        "ĠL",
        "e"
      ],
      [
        "ĠÏ",
        "ģ"
      ],
      [
        "Ġwh",
        "ose"
      ],
      [
        "Ġal",
        "ong"
      ],
      [
        "Ġcos",
        "ÏĨ"
      ],
      [
        "Ġcapacitor",
        "s"
      ],
      [
        "ĠTh",
        "ree"
      ],
      [
        "ult",
        "ip"
      ],
      [
        "Ġse",
        "par"
      ],
      [
        "ĠSu",
        "pp"
      ],
      [
        "Ġcor",
        "respond"
      ],
      [
        "Ġcl",
        "osed"
      ],
      [
        "e",
        "ab"
      ],
      [
        "Ġs",
        "elf"
      ],
      [
        "Ġp",
        "ure"
      ],
      [
        "Ġm",
        "esh"
      ],
      [
        "Ġcon",
        "tain"
      ],
      [
        "Ġr",
        "ange"
      ],
      [
        "Ġch",
        "an"
      ],
      [
        "Ġvari",
        "able"
      ],
      [
        "ick",
        "el"
      ],
      [
        "Ġgener",
        "al"
      ],
      [
        "Ġdisch",
        "arge"
      ],
      [
        "Ġshow",
        "s"
      ],
      [
        "Ġhel",
        "p"
      ],
      [
        "8",
        "1"
      ],
      [
        "c",
        "ent"
      ],
      [
        "e",
        "ed"
      ],
      [
        "l",
        "ain"
      ],
      [
        "Ġâ",
        "ĨĴ"
      ],
      [
        "Ġth",
        "ick"
      ],
      [
        "ir",
        "ch"
      ],
      [
        "Â°",
        ")"
      ],
      [
        "Ġpl",
        "aced"
      ],
      [
        "if",
        "i"
      ],
      [
        "Ġse",
        "quence"
      ],
      [
        "ĠEn",
        "ergy"
      ],
      [
        "Ġen",
        "d"
      ],
      [
        "ĠMet",
        "hod"
      ],
      [
        "(",
        "âĪĴ"
      ],
      [
        "0",
        "1"
      ],
      [
        "h",
        "our"
      ],
      [
        "m",
        "itt"
      ],
      [
        "Î",
        "»"
      ],
      [
        "ĠThe",
        "orem"
      ],
      [
        "Ġj",
        "X"
      ],
      [
        "id",
        "es"
      ],
      [
        "Ġfi",
        "xed"
      ],
      [
        "Ġswit",
        "ch"
      ],
      [
        "0",
        "4"
      ],
      [
        "i",
        "le"
      ],
      [
        "u",
        "b"
      ],
      [
        "y",
        "d"
      ],
      [
        "Ġa",
        "x"
      ],
      [
        "Ġs",
        "cale"
      ],
      [
        "Ġ2",
        "7"
      ],
      [
        "Ġ2",
        "8"
      ],
      [
        "Ġm",
        "ut"
      ],
      [
        "ore",
        "ms"
      ],
      [
        "ĠY",
        "B"
      ],
      [
        "ĠK",
        "irch"
      ],
      [
        "Ġcom",
        "mon"
      ],
      [
        "ĠSu",
        "b"
      ],
      [
        "Ġpr",
        "imary"
      ],
      [
        "Ġ|",
        "|"
      ],
      [
        "ho",
        "ff"
      ],
      [
        "4",
        "9"
      ],
      [
        "Ġa",
        "v"
      ],
      [
        "un",
        "ction"
      ],
      [
        "Ġwh",
        "ole"
      ],
      [
        "am",
        "ental"
      ],
      [
        "ĠâĢ",
        "²"
      ],
      [
        "agnet",
        "is"
      ],
      [
        "und",
        "amental"
      ],
      [
        "Ġste",
        "ady"
      ],
      [
        "Ġcur",
        "ve"
      ],
      [
        "f",
        "er"
      ],
      [
        "w",
        "ire"
      ],
      [
        "Ġf",
        "all"
      ],
      [
        "Ġd",
        "es"
      ],
      [
        "Ġl",
        "im"
      ],
      [
        "Ġwh",
        "at"
      ],
      [
        "Ġst",
        "r"
      ],
      [
        "Ġsp",
        "ec"
      ],
      [
        "ere",
        "d"
      ],
      [
        "tr",
        "act"
      ],
      [
        "ĠKirch",
        "hoff"
      ],
      [
        "3",
        "14"
      ],
      [
        "4",
        "1"
      ],
      [
        "5",
        "9"
      ],
      [
        "Ġ",
        "&"
      ],
      [
        "Ġ",
        "-"
      ],
      [
        "Ġin",
        "ter"
      ],
      [
        "Ġw",
        "as"
      ],
      [
        "Ġ3",
        "00"
      ],
      [
        "ĠE",
        "lectric"
      ],
      [
        "ĠS",
        "eries"
      ],
      [
        "ĠH",
        "ere"
      ],
      [
        "Ġdi",
        "ameter"
      ],
      [
        "Ġ200",
        "0"
      ],
      [
        "Ġlag",
        "s"
      ],
      [
        "Ġlead",
        "s"
      ],
      [
        "inc",
        "ip"
      ],
      [
        "Ġins",
        "ul"
      ],
      [
        "Ġin",
        "itial"
      ],
      [
        "ar",
        "ds"
      ],
      [
        "Ġne",
        "w"
      ],
      [
        "alcu",
        "l"
      ],
      [
        "Ġle",
        "ading"
      ],
      [
        "ĠÏī",
        "t"
      ],
      [
        "Ġwhere",
        "as"
      ],
      [
        "de",
        "pendent"
      ],
      [
        "Ġâİ¢",
        "âİ£"
      ],
      [
        "6",
        "3"
      ],
      [
        "g",
        "en"
      ],
      [
        "g",
        "ain"
      ],
      [
        "he",
        "d"
      ],
      [
        "Ġd",
        "r"
      ],
      [
        "ĠÎ",
        "»"
      ],
      [
        "Ġco",
        "re"
      ],
      [
        "ot",
        "her"
      ],
      [
        "Ġst",
        "rength"
      ],
      [
        "Ġsp",
        "ring"
      ],
      [
        "Ġwattmeter",
        "s"
      ],
      [
        "Ġcar",
        "ry"
      ],
      [
        "l",
        "ux"
      ],
      [
        "v",
        "an"
      ],
      [
        "Ġc",
        "he"
      ],
      [
        "Ġs",
        "ome"
      ],
      [
        "Ġm",
        "an"
      ],
      [
        "ar",
        "ad"
      ],
      [
        "ĠV",
        "A"
      ],
      [
        "Ġ6",
        "00"
      ],
      [
        "apac",
        "ity"
      ],
      [
        "Ġst",
        "and"
      ],
      [
        "Ġdis",
        "s"
      ],
      [
        "orm",
        "al"
      ],
      [
        "Ġflow",
        "s"
      ],
      [
        "Ġhe",
        "at"
      ],
      [
        "5",
        "8"
      ],
      [
        "D",
        "C"
      ],
      [
        "r",
        "ical"
      ],
      [
        "al",
        "van"
      ],
      [
        "ĠN",
        "ot"
      ],
      [
        "âİ",
        "¢"
      ],
      [
        "Ġreading",
        "s"
      ],
      [
        "Ġjo",
        "ule"
      ],
      [
        "Ġdo",
        "es"
      ],
      [
        "che",
        "s"
      ],
      [
        "Ġrepresent",
        "ed"
      ],
      [
        "Ġrev",
        "olution"
      ],
      [
        "7",
        "6"
      ],
      [
        "e",
        "ak"
      ],
      [
        "g",
        "a"
      ],
      [
        "k",
        "ed"
      ],
      [
        "Ġ=",
        "âĪĴ"
      ],
      [
        "Ġs",
        "ide"
      ],
      [
        "Ġs",
        "imilar"
      ],
      [
        "Ġd",
        "B"
      ],
      [
        "Ġl",
        "amp"
      ],
      [
        "Ġcon",
        "ver"
      ],
      [
        "ĠP",
        "hase"
      ],
      [
        "ĠD",
        "raw"
      ],
      [
        "omb",
        "ay"
      ],
      [
        "Ġcomple",
        "x"
      ],
      [
        "ĠSum",
        "mer"
      ],
      [
        "eab",
        "ility"
      ],
      [
        "alvan",
        "ometer"
      ],
      [
        "9",
        "1"
      ],
      [
        "r",
        "ies"
      ],
      [
        "Î",
        "Ķ"
      ],
      [
        "ed",
        "ium"
      ],
      [
        "ic",
        "ular"
      ],
      [
        "Ġe",
        "ar"
      ],
      [
        "ĠThe",
        "n"
      ],
      [
        "ĠThe",
        "orems"
      ],
      [
        "Ġex",
        "t"
      ],
      [
        "Ġapp",
        "lic"
      ],
      [
        "Ġcons",
        "ider"
      ],
      [
        "Ġad",
        "dit"
      ],
      [
        "Ġinc",
        "rease"
      ],
      [
        "Ġcompon",
        "ents"
      ],
      [
        "ĠMe",
        "asure"
      ],
      [
        "induct",
        "ive"
      ],
      [
        "uct",
        "ance"
      ],
      [
        "posit",
        "ion"
      ],
      [
        "Ġed",
        "dy"
      ],
      [
        "A",
        "rt"
      ],
      [
        "d",
        "ed"
      ],
      [
        "p",
        "h"
      ],
      [
        "p",
        "ass"
      ],
      [
        "Ġs",
        "ym"
      ],
      [
        "at",
        "t"
      ],
      [
        "ar",
        "ged"
      ],
      [
        "Ġn",
        "ormal"
      ],
      [
        "ad",
        "r"
      ],
      [
        "Ġg",
        "re"
      ],
      [
        "Ġr",
        "ise"
      ],
      [
        "ĠN",
        "ort"
      ],
      [
        "ĠIn",
        "strum"
      ],
      [
        "Ġpro",
        "v"
      ],
      [
        "amp",
        "ing"
      ],
      [
        "Ġperm",
        "itt"
      ],
      [
        "ĠCo",
        "mp"
      ],
      [
        "Ġdec",
        "reas"
      ],
      [
        "Ġli",
        "ke"
      ],
      [
        "0",
        "6"
      ],
      [
        "8",
        "3"
      ],
      [
        "b",
        "alanced"
      ],
      [
        "Ġc",
        "ut"
      ],
      [
        "Ġs",
        "qu"
      ],
      [
        "Ġw",
        "r"
      ],
      [
        "Ġd",
        "one"
      ],
      [
        "ar",
        "ging"
      ],
      [
        "Ġ3",
        "5"
      ],
      [
        "ĠThe",
        "re"
      ],
      [
        "Ġbe",
        "low"
      ],
      [
        "Ġsh",
        "unt"
      ],
      [
        "Ġpro",
        "duct"
      ],
      [
        "Ġtak",
        "e"
      ],
      [
        "per",
        "position"
      ],
      [
        "Ġar",
        "ran"
      ],
      [
        "Ġdirect",
        "ly"
      ],
      [
        "cor",
        "ding"
      ],
      [
        "Ġdiss",
        "ip"
      ],
      [
        "E",
        "lectrical"
      ],
      [
        "Ġ",
        "et"
      ],
      [
        "Ġd",
        "istance"
      ],
      [
        "ĠV",
        "I"
      ],
      [
        "Ġco",
        "efficient"
      ],
      [
        "Â°",
        "="
      ],
      [
        "ĠP",
        "b"
      ],
      [
        "Ġk",
        "e"
      ],
      [
        "ĠD",
        "e"
      ],
      [
        "Ġtak",
        "es"
      ],
      [
        "Ġreact",
        "ive"
      ],
      [
        "ĠCon",
        "s"
      ],
      [
        "yd",
        "ro"
      ],
      [
        "ĠNort",
        "on"
      ],
      [
        "f",
        "in"
      ],
      [
        "Ġb",
        "and"
      ],
      [
        "Ġm",
        "H"
      ],
      [
        "ĠF",
        "lux"
      ],
      [
        "ĠÎ",
        "²"
      ],
      [
        "Ġr",
        "ight"
      ],
      [
        "Ġsu",
        "it"
      ],
      [
        "Ġconduct",
        "ors"
      ],
      [
        "Ġreson",
        "ant"
      ],
      [
        "Ġcomple",
        "te"
      ],
      [
        "Ġet",
        "c"
      ],
      [
        "o",
        "unt"
      ],
      [
        "v",
        "olt"
      ],
      [
        "al",
        "s"
      ],
      [
        "Ġf",
        "act"
      ],
      [
        "ĠB",
        "atter"
      ],
      [
        "Ġh",
        "ysteresis"
      ],
      [
        "Ġr",
        "ule"
      ],
      [
        "lo",
        "ck"
      ],
      [
        "Ġcar",
        "ries"
      ],
      [
        "co",
        "il"
      ],
      [
        "vel",
        "op"
      ],
      [
        "Ġharmon",
        "ic"
      ],
      [
        "Ġmut",
        "ual"
      ],
      [
        "7",
        "7"
      ],
      [
        "i",
        "br"
      ],
      [
        "Ġc",
        "alcul"
      ],
      [
        "Ġs",
        "l"
      ],
      [
        "it",
        "ut"
      ],
      [
        "Ġp",
        "re"
      ],
      [
        "Ġp",
        "olar"
      ],
      [
        "Ġin",
        "g"
      ],
      [
        "Ġb",
        "alance"
      ],
      [
        "ance",
        "s"
      ],
      [
        "Ġn",
        "ickel"
      ],
      [
        "st",
        "itut"
      ],
      [
        "el",
        "ga"
      ],
      [
        "ĠM",
        "ax"
      ],
      [
        "Ġex",
        "ample"
      ],
      [
        "Ġcomb",
        "ined"
      ],
      [
        "Ġcondit",
        "ions"
      ],
      [
        "elga",
        "um"
      ],
      [
        ")",
        "+"
      ],
      [
        "b",
        "ed"
      ],
      [
        "e",
        "m"
      ],
      [
        "k",
        "nown"
      ],
      [
        "Ġc",
        "apacity"
      ],
      [
        "Ġof",
        "f"
      ],
      [
        "at",
        "ic"
      ],
      [
        "ĠA",
        "ss"
      ],
      [
        "Ġm",
        "at"
      ],
      [
        "Ġd",
        "etermine"
      ],
      [
        "Ġh",
        "ow"
      ],
      [
        "Ġg",
        "alvanometer"
      ],
      [
        "ĠN",
        "agpur"
      ],
      [
        "od",
        "e"
      ],
      [
        "Ġbran",
        "ches"
      ],
      [
        "Ġrem",
        "o"
      ],
      [
        "âĪłâĪł",
        "âĪłâĪł"
      ],
      [
        "Ġrepl",
        "aced"
      ],
      [
        "ĠCons",
        "ider"
      ],
      [
        "6",
        "4"
      ],
      [
        "7",
        "9"
      ],
      [
        "e",
        "ar"
      ],
      [
        "f",
        "or"
      ],
      [
        "k",
        "ing"
      ],
      [
        "is",
        "ed"
      ],
      [
        "Ġ2",
        "9"
      ],
      [
        "at",
        "ak"
      ],
      [
        "Ġp",
        "ur"
      ],
      [
        "ĠS",
        "ource"
      ],
      [
        "Ġn",
        "et"
      ],
      [
        "Ġpo",
        "le"
      ],
      [
        "res",
        "ent"
      ],
      [
        "Ġ200",
        "1"
      ],
      [
        "Ġde",
        "velop"
      ],
      [
        "ĠK",
        "arn"
      ],
      [
        "Ġequal",
        "s"
      ],
      [
        "Ġwatt",
        "s"
      ],
      [
        "Ġfollow",
        "s"
      ],
      [
        "Ġvari",
        "ous"
      ],
      [
        "Ġpass",
        "ing"
      ],
      [
        "Ġrevers",
        "ed"
      ],
      [
        "atak",
        "a"
      ],
      [
        "ĠKarn",
        "ataka"
      ],
      [
        "7",
        "0"
      ],
      [
        "b",
        "y"
      ],
      [
        "n",
        "am"
      ],
      [
        "w",
        "ays"
      ],
      [
        "Î",
        "¦"
      ],
      [
        "Ġc",
        "ircu"
      ],
      [
        "Ġp",
        "ress"
      ],
      [
        "Ġor",
        "der"
      ],
      [
        "Ġsin",
        "ce"
      ],
      [
        "Ġpo",
        "ss"
      ],
      [
        "ak",
        "ing"
      ],
      [
        "ÏĢ",
        "Îµ"
      ],
      [
        "Ġ199",
        "2"
      ],
      [
        "Ġpr",
        "act"
      ],
      [
        "Ġam",
        "ount"
      ],
      [
        "Ġperm",
        "eability"
      ],
      [
        "ĠSupp",
        "ose"
      ],
      [
        "ĠInstrum",
        "ents"
      ],
      [
        "7",
        "1"
      ],
      [
        "l",
        "ar"
      ],
      [
        "Ġin",
        "dependent"
      ],
      [
        "ĠA",
        "d"
      ],
      [
        "Ġm",
        "edium"
      ],
      [
        "Ġv",
        "e"
      ],
      [
        "ĠR",
        "el"
      ],
      [
        "ut",
        "or"
      ],
      [
        "ĠB",
        "h"
      ],
      [
        "ĠB",
        "elgaum"
      ],
      [
        "Ġint",
        "ensity"
      ],
      [
        "Ġdef",
        "ined"
      ],
      [
        "ĠAn",
        "alysis"
      ],
      [
        "Ġjo",
        "ined"
      ],
      [
        "Ġcondit",
        "ion"
      ],
      [
        "Ġcorrespond",
        "ing"
      ],
      [
        "ĠNot",
        "e"
      ],
      [
        "Ġpur",
        "p"
      ],
      [
        "c",
        "id"
      ],
      [
        "f",
        "ul"
      ],
      [
        "l",
        "ig"
      ],
      [
        "m",
        "an"
      ],
      [
        "t",
        "urns"
      ],
      [
        "u",
        "ch"
      ],
      [
        "Ġ2",
        "20"
      ],
      [
        "ĠT",
        "rans"
      ],
      [
        "Ġ3",
        "3"
      ],
      [
        "Ġal",
        "ways"
      ],
      [
        "Ġ18",
        "0"
      ],
      [
        "Ġneg",
        "lig"
      ],
      [
        "Ġdrop",
        "s"
      ],
      [
        "Ġpermitt",
        "ivity"
      ],
      [
        "7",
        "3"
      ],
      [
        "i",
        "b"
      ],
      [
        "l",
        "ag"
      ],
      [
        "n",
        "ess"
      ],
      [
        "p",
        "l"
      ],
      [
        "Ġs",
        "et"
      ],
      [
        "Ġan",
        "other"
      ],
      [
        "Ġre",
        "duced"
      ],
      [
        "Ġn",
        "ow"
      ],
      [
        "ĠB",
        "etween"
      ],
      [
        "ĠâĢ",
        "Ķ"
      ],
      [
        "Ġ7",
        "5"
      ],
      [
        "Ġne",
        "cess"
      ],
      [
        "ĠSu",
        "ch"
      ],
      [
        "Ġexp",
        "lain"
      ],
      [
        "8",
        "2"
      ],
      [
        "Ġc",
        "a"
      ],
      [
        "Ġs",
        "us"
      ],
      [
        "Ġb",
        "r"
      ],
      [
        "ĠV",
        "alu"
      ],
      [
        "um",
        "ing"
      ],
      [
        "Ġun",
        "ity"
      ],
      [
        "Ïī",
        "C"
      ],
      [
        "itt",
        "en"
      ],
      [
        "Î¼Î¼",
        "Î¼Î¼"
      ],
      [
        "Ġass",
        "umed"
      ],
      [
        "Ġabs",
        "or"
      ],
      [
        "Ġax",
        "is"
      ],
      [
        "Ġsqu",
        "are"
      ],
      [
        "9",
        "3"
      ],
      [
        "i",
        "od"
      ],
      [
        "o",
        "c"
      ],
      [
        "s",
        "ion"
      ],
      [
        "v",
        "ant"
      ],
      [
        "Ġs",
        "a"
      ],
      [
        "an",
        "gle"
      ],
      [
        "Ġm",
        "ultip"
      ],
      [
        "ol",
        "ume"
      ],
      [
        "ĠT",
        "utor"
      ],
      [
        "ir",
        "d"
      ],
      [
        "id",
        "ed"
      ],
      [
        "Ġwh",
        "ile"
      ],
      [
        "ĠâĪł",
        "âĪłâĪłâĪłâĪł"
      ],
      [
        "Ġle",
        "t"
      ],
      [
        "Ġfind",
        "ing"
      ],
      [
        "Ġmet",
        "re"
      ],
      [
        "Ġact",
        "ual"
      ],
      [
        "ĠMeasure",
        "ments"
      ],
      [
        "Ġwr",
        "itten"
      ],
      [
        "stitut",
        "ing"
      ],
      [
        "Ġneglig",
        "ible"
      ],
      [
        "ĠTutor",
        "ial"
      ],
      [
        "c",
        "urrent"
      ],
      [
        "d",
        "Î¸"
      ],
      [
        "l",
        "ing"
      ],
      [
        "t",
        "on"
      ],
      [
        "Ġw",
        "ay"
      ],
      [
        "ĠâĪ",
        "Ĥ"
      ],
      [
        "ĠC",
        "A"
      ],
      [
        "ĠS",
        "ec"
      ],
      [
        "ĠB",
        "ut"
      ],
      [
        "Ġg",
        "ap"
      ],
      [
        "ĠP",
        "l"
      ],
      [
        "ĠM",
        "agnetic"
      ],
      [
        "nect",
        "ion"
      ],
      [
        "Ġde",
        "pen"
      ],
      [
        "op",
        "al"
      ],
      [
        "âİ¥",
        "âİ¦"
      ],
      [
        "ĠkVA",
        "R"
      ],
      [
        "Ġsi",
        "mple"
      ],
      [
        "Ġincreas",
        "es"
      ],
      [
        "Ġtransform",
        "er"
      ],
      [
        "Ġmagnetis",
        "ing"
      ],
      [
        "ĠLo",
        "ad"
      ],
      [
        "Ġremo",
        "ved"
      ],
      [
        "ĠBh",
        "opal"
      ],
      [
        "Ġdepen",
        "ds"
      ],
      [
        ")",
        "("
      ],
      [
        "8",
        "8"
      ],
      [
        "C",
        "L"
      ],
      [
        "a",
        "ir"
      ],
      [
        "i",
        "eld"
      ],
      [
        "Ġin",
        "fin"
      ],
      [
        "ig",
        "her"
      ],
      [
        "Ġl",
        "ight"
      ],
      [
        "cu",
        "ss"
      ],
      [
        "Ġ10",
        "3"
      ],
      [
        "ĠL",
        "ondon"
      ],
      [
        "ap",
        "h"
      ],
      [
        "ac",
        "id"
      ],
      [
        "ĠO",
        "ne"
      ],
      [
        "ĠO",
        "hm"
      ],
      [
        "th",
        "ough"
      ],
      [
        "Ġsp",
        "eed"
      ],
      [
        "Ġamp",
        "eres"
      ],
      [
        "Ġad",
        "j"
      ],
      [
        "ri",
        "x"
      ],
      [
        "Ġ199",
        "1"
      ],
      [
        "ÃĹÃĹ",
        "ÃĹÃĹ"
      ],
      [
        "ĠCapacit",
        "or"
      ],
      [
        "ĠPro",
        "ble"
      ],
      [
        "f",
        "actor"
      ],
      [
        "i",
        "a"
      ],
      [
        "Ġf",
        "inal"
      ],
      [
        "Ġw",
        "ell"
      ],
      [
        "Ġm",
        "Wb"
      ],
      [
        "Ġm",
        "uch"
      ],
      [
        "Ġv",
        "ie"
      ],
      [
        "ro",
        "x"
      ],
      [
        "ĠF",
        "ilter"
      ],
      [
        "Ġbe",
        "fore"
      ],
      [
        "Ġh",
        "ydro"
      ],
      [
        "Ġk",
        "cal"
      ],
      [
        "Ġwe",
        "ight"
      ],
      [
        "Ïī",
        "L"
      ],
      [
        "Ġvector",
        "s"
      ],
      [
        "Ġtim",
        "es"
      ],
      [
        "Ġcor",
        "re"
      ],
      [
        "ĠSt",
        "ar"
      ],
      [
        "Ġsi",
        "mp"
      ],
      [
        "oly",
        "phase"
      ],
      [
        "Ġcent",
        "re"
      ],
      [
        "Ġarm",
        "ature"
      ],
      [
        "mitt",
        "ance"
      ],
      [
        "Ġvie",
        "w"
      ],
      [
        "9",
        "8"
      ],
      [
        "d",
        "in"
      ],
      [
        "s",
        "cale"
      ],
      [
        "Ġc",
        "er"
      ],
      [
        "ĠA",
        "mp"
      ],
      [
        "Ġre",
        "g"
      ],
      [
        "ĠThe",
        "y"
      ],
      [
        "ĠP",
        "h"
      ],
      [
        "ĠP",
        "otential"
      ],
      [
        "Ġk",
        "Hz"
      ],
      [
        "ĠD",
        "i"
      ],
      [
        "Ġcapacit",
        "ive"
      ],
      [
        "ak",
        "age"
      ],
      [
        "ĠIt",
        "s"
      ],
      [
        "ĠK",
        "CL"
      ],
      [
        "Ġdeflect",
        "ing"
      ],
      [
        "Ġproduce",
        "s"
      ],
      [
        "Ġradi",
        "an"
      ],
      [
        "ĠSub",
        "stituting"
      ],
      [
        "A",
        "T"
      ],
      [
        "Ġa",
        "gain"
      ],
      [
        "Ġf",
        "our"
      ],
      [
        "Ġf",
        "undamental"
      ],
      [
        "Ġw",
        "or"
      ],
      [
        "Ġd",
        "eterm"
      ],
      [
        "Ġd",
        "amping"
      ],
      [
        "ĠV",
        "ector"
      ],
      [
        "ĠÃĹ",
        "ÃĹÃĹÃĹÃĹ"
      ],
      [
        "Ġi",
        "m"
      ],
      [
        "Ġ6",
        "3"
      ],
      [
        "Ġst",
        "ate"
      ],
      [
        "Ġch",
        "o"
      ],
      [
        "Ġchar",
        "ges"
      ],
      [
        "Ġle",
        "ft"
      ],
      [
        "str",
        "u"
      ],
      [
        "Ġdis",
        "cuss"
      ],
      [
        "Ġact",
        "s"
      ],
      [
        "ri",
        "b"
      ],
      [
        "Ġgener",
        "ator"
      ],
      [
        "av",
        "es"
      ],
      [
        "Ġincreas",
        "ed"
      ],
      [
        "Ġread",
        "s"
      ],
      [
        "incip",
        "le"
      ],
      [
        "Ġdr",
        "iv"
      ],
      [
        "Ġdissip",
        "ated"
      ],
      [
        "Ġsuit",
        "able"
      ],
      [
        "5",
        "1"
      ],
      [
        "v",
        "ent"
      ],
      [
        "y",
        "l"
      ],
      [
        "on",
        "ant"
      ],
      [
        "Ġp",
        "ut"
      ],
      [
        "or",
        "y"
      ],
      [
        "Ġd",
        "x"
      ],
      [
        "Ġd",
        "ist"
      ],
      [
        "il",
        "y"
      ],
      [
        "Ġk",
        "Î©"
      ],
      [
        "act",
        "ive"
      ],
      [
        "Ġab",
        "out"
      ],
      [
        "Ġinduct",
        "or"
      ],
      [
        "Ġinduct",
        "ion"
      ],
      [
        "Ġtrans",
        "fer"
      ],
      [
        "Ġeffect",
        "ive"
      ],
      [
        "sect",
        "ional"
      ],
      [
        "Ġhour",
        "s"
      ],
      [
        "ail",
        "able"
      ],
      [
        "Ġgre",
        "ater"
      ],
      [
        "lock",
        "wise"
      ],
      [
        "R",
        "G"
      ],
      [
        "c",
        "m"
      ],
      [
        "o",
        "hm"
      ],
      [
        "t",
        "s"
      ],
      [
        "in",
        "u"
      ],
      [
        "Ġc",
        "al"
      ],
      [
        "Ġm",
        "ove"
      ],
      [
        "ut",
        "e"
      ],
      [
        "Ġh",
        "igher"
      ],
      [
        "Ġg",
        "ive"
      ],
      [
        "ĠM",
        "otor"
      ],
      [
        "ge",
        "br"
      ],
      [
        "Ġ7",
        "0"
      ],
      [
        "li",
        "f"
      ],
      [
        "Ġapp",
        "lying"
      ],
      [
        "Ġper",
        "iod"
      ],
      [
        "Ġphas",
        "es"
      ],
      [
        "Ġste",
        "el"
      ],
      [
        "Ġelectr",
        "oly"
      ],
      [
        "ĠApp",
        "lying"
      ],
      [
        "Ġrect",
        "ifi"
      ],
      [
        "Ġremain",
        "s"
      ],
      [
        "agnetis",
        "m"
      ],
      [
        "Ġpress",
        "ure"
      ],
      [
        "gebr",
        "a"
      ],
      [
        "1",
        "000"
      ],
      [
        "7",
        "07"
      ],
      [
        "k",
        "g"
      ],
      [
        "s",
        "econd"
      ],
      [
        "Ġc",
        "able"
      ],
      [
        "an",
        "ent"
      ],
      [
        "Ġp",
        "eak"
      ],
      [
        "Ġb",
        "ack"
      ],
      [
        "ur",
        "ther"
      ],
      [
        "Ġth",
        "ose"
      ],
      [
        "um",
        "in"
      ],
      [
        "Ġ8",
        "00"
      ],
      [
        "ĠO",
        "A"
      ],
      [
        "ĠÎ¼",
        "Î¼Î¼Î¼Î¼"
      ],
      [
        "Ġun",
        "balanced"
      ],
      [
        "Ġmet",
        "res"
      ],
      [
        "Ġrel",
        "uctance"
      ],
      [
        "Ġangle",
        "s"
      ],
      [
        "ĠSu",
        "perposition"
      ],
      [
        "Ġpart",
        "s"
      ],
      [
        "Ġele",
        "ment"
      ],
      [
        "ĠÂ",
        "µ"
      ],
      [
        "Ġmain",
        "s"
      ],
      [
        "8",
        "66"
      ],
      [
        "c",
        "ycle"
      ],
      [
        "u",
        "mp"
      ],
      [
        "Ġan",
        "alysis"
      ],
      [
        "Ġb",
        "c"
      ],
      [
        "Ġe",
        "as"
      ],
      [
        "ul",
        "ph"
      ],
      [
        "ate",
        "ly"
      ],
      [
        "Ġmet",
        "al"
      ],
      [
        "Ġqu",
        "adr"
      ],
      [
        "Ġmeter",
        "s"
      ],
      [
        "Ġconnect",
        "ion"
      ],
      [
        "ĠInduct",
        "ion"
      ],
      [
        "Ġcont",
        "inu"
      ],
      [
        "Ġche",
        "mical"
      ],
      [
        "Ġnecess",
        "ary"
      ],
      [
        "Ġabsor",
        "bed"
      ],
      [
        ")",
        "âĪĴ"
      ],
      [
        "9",
        "4"
      ],
      [
        "P",
        "V"
      ],
      [
        "a",
        "pp"
      ],
      [
        "g",
        "et"
      ],
      [
        "p",
        "r"
      ],
      [
        "t",
        "ion"
      ],
      [
        "er",
        "ing"
      ],
      [
        "en",
        "oid"
      ],
      [
        "Ġb",
        "as"
      ],
      [
        "Ġf",
        "ig"
      ],
      [
        "Ġf",
        "ree"
      ],
      [
        "Ġd",
        "own"
      ],
      [
        "ĠI",
        "R"
      ],
      [
        "Ġ3",
        "14"
      ],
      [
        "as",
        "es"
      ],
      [
        "Ġ+",
        "("
      ],
      [
        "Ġ10",
        "5"
      ],
      [
        "Ġcon",
        "j"
      ],
      [
        "du",
        "c"
      ],
      [
        "Ġr",
        "a"
      ],
      [
        "Ġat",
        "t"
      ],
      [
        "ĠIn",
        "d"
      ],
      [
        "Ġma",
        "ke"
      ],
      [
        "ĠEx",
        "p"
      ],
      [
        "Ġpo",
        "inter"
      ],
      [
        "Ġle",
        "ss"
      ],
      [
        "Ġun",
        "known"
      ],
      [
        "Ġimp",
        "ort"
      ],
      [
        "Ġsp",
        "here"
      ],
      [
        "Ġsp",
        "ace"
      ],
      [
        "Ġnetwork",
        "s"
      ],
      [
        "lo",
        "ad"
      ],
      [
        "Ġnod",
        "es"
      ],
      [
        "are",
        "d"
      ],
      [
        "Ġav",
        "ailable"
      ],
      [
        "Ġsym",
        "met"
      ],
      [
        "ĠValu",
        "e"
      ],
      [
        "Ġsa",
        "id"
      ],
      [
        "Ġwor",
        "ds"
      ],
      [
        "RG",
        "PV"
      ],
      [
        "O",
        "H"
      ],
      [
        "P",
        "olyphase"
      ],
      [
        "i",
        "res"
      ],
      [
        "n",
        "er"
      ],
      [
        "p",
        "ower"
      ],
      [
        "u",
        "ble"
      ],
      [
        "he",
        "s"
      ],
      [
        "Ġc",
        "ast"
      ],
      [
        "Ġo",
        "x"
      ],
      [
        "ĠA",
        "h"
      ],
      [
        "ĠF",
        "requ"
      ],
      [
        "Ġ3",
        "7"
      ],
      [
        "iv",
        "ider"
      ],
      [
        "ir",
        "cle"
      ],
      [
        "mp",
        "edance"
      ],
      [
        "Ġ4",
        "8"
      ],
      [
        "ĠB",
        "R"
      ],
      [
        "ĠL",
        "ine"
      ],
      [
        "ĠN",
        "eg"
      ],
      [
        "ĠU",
        "se"
      ],
      [
        "Ġpro",
        "per"
      ],
      [
        "ĠO",
        "B"
      ],
      [
        "ĠFor",
        "m"
      ],
      [
        "Ġconsist",
        "ing"
      ],
      [
        "Ġwave",
        "form"
      ],
      [
        "Ġelect",
        "rom"
      ],
      [
        "Ġele",
        "ments"
      ],
      [
        "cent",
        "age"
      ],
      [
        "yl",
        "ind"
      ],
      [
        "7",
        "4"
      ],
      [
        "9",
        "2"
      ],
      [
        "C",
        "R"
      ],
      [
        "E",
        "S"
      ],
      [
        "L",
        "ondon"
      ],
      [
        "l",
        "ies"
      ],
      [
        "x",
        "t"
      ],
      [
        "y",
        "ing"
      ],
      [
        "Ġ",
        "<"
      ],
      [
        "Ġb",
        "o"
      ],
      [
        "Ġd",
        "el"
      ],
      [
        "ĠF",
        "actor"
      ],
      [
        "Ġe",
        "ven"
      ],
      [
        "as",
        "uring"
      ],
      [
        "ĠS",
        "h"
      ],
      [
        "Ġj",
        "b"
      ],
      [
        "ĠP",
        "une"
      ],
[...]
